/**
  ******************************************************************************
  * @file    model_data_params.c
  * @author  AST Embedded Analytics Research Platform
  * @date    2024-11-19T14:29:56+0100
  * @brief   AI Tool Automatic Code Generator for Embedded NN computing
  ******************************************************************************
  * Copyright (c) 2024 STMicroelectronics.
  * All rights reserved.
  *
  * This software is licensed under terms that can be found in the LICENSE file
  * in the root directory of this software component.
  * If no LICENSE file comes with this software, it is provided AS-IS.
  ******************************************************************************
  */

#include "model_data_params.h"


/**  Activations Section  ****************************************************/
ai_handle g_model_activations_table[1 + 2] = {
  AI_HANDLE_PTR(AI_MAGIC_MARKER),
  AI_HANDLE_PTR(NULL),
  AI_HANDLE_PTR(AI_MAGIC_MARKER),
};




/**  Weights Section  ********************************************************/
AI_ALIGNED(32)
const ai_u64 s_model_weights_array_u64[130570] = {
  0xbd90c4613c2d6950U, 0x3ca726d8bc6cbd90U, 0x3de6dc723da2902cU, 0x3d8992dc3d44dec4U,
  0xbde6b059bd98ff95U, 0xbd5de126bd1a4ac4U, 0x3d83c1d6bd799324U, 0x3d68b2443b20a5b6U,
  0xbda2456abcc89744U, 0xbd7823c03ceddc98U, 0xbd5026d63cba10b0U, 0x3d8506383df47dcaU,
  0x3ddceb88bea7806eU, 0x3ca63e383dbf3b50U, 0x3d8c30b2bd326ee6U, 0xbdaeeebabd91fa38U,
  0x3c8116f8bd1b677aU, 0xbdb7f0763d917847U, 0x3c178110bdb9db32U, 0xbd8d97e4bcfd7ddcU,
  0x3db949b4bc9eca74U, 0x3dfd9062bcf05518U, 0xbd45e8fcbdcd25f9U, 0x3caed3b8bdd316e4U,
  0xbdb45210be058ae6U, 0x3cd26e003de77706U, 0x3da489343d87fc8eU, 0x3db57ce6bda9be9bU,
  0x3be689e0bdc7db50U, 0xbdc56ee7bd96010fU, 0xbd0f26523b03ab80U, 0xbd61c8883d10b6d0U,
  0x3da3362abecfcbf6U, 0x3db7695a3dffdcfeU, 0x3df2148abd6a446eU, 0x3dc3a5babd20e736U,
  0x3d7742e43db2191cU, 0x3d82dc3cbd4d548bU, 0x3d73d2ecbe0dc7feU, 0x3dec96c63dc903b6U,
  0xbd93eaba3d9ee672U, 0xbdb0bacd3db87c8eU, 0x3dc855423b6fc45fU, 0xbdf63c883dfd9c26U,
  0x3dc702c6bde094c2U, 0x3db78ef03cc26f60U, 0x3b61abc03dd735ccU, 0xbd940c6ebc1c7c10U,
  0xbd150a04bdff1e63U, 0xbd4e8402bdda703cU, 0xbdc053f53d992e62U, 0x38e1b8003d2c3ee4U,
  0xbe0df8c1baa0b91fU, 0xbcd31a18bc755010U, 0x3d9a0d08bd8febb2U, 0xbd84a52ebb98a740U,
  0x3a15c400bce5e1c8U, 0xbdefcea2bc133657U, 0x3e0122553c3b7690U, 0x3dd19d0e3dccc098U,
  0xbcc698583cc73170U, 0x3a6470003e0470a9U, 0xbdc669883a778d5eU, 0xbc6ae9f83c2cee70U,
  0x3e0a5053bc2db160U, 0x3ccfe398be07fe2aU, 0x3d03bb34bd06a6ceU, 0xbe0d80943b84e308U,
  0xbdaaddc0bdd6217cU, 0xbc4e8d803ceaa160U, 0x3d2503acbc92aa5cU, 0x3c5e80303d48ff68U,
  0x3d9b0cd2bcb7e601U, 0x3e08d1953e07b4d7U, 0xbdc16c023c45bc90U, 0xbd5192d83e0842b5U,
  0xbdf7bd9a3e01fc01U, 0x3c8d1518be749265U, 0x3def12b23da19628U, 0xbd2142683dcb69c2U,
  0x3e0c5c273e091131U, 0x3e072057bdc425eaU, 0x3df54f4ebaef66cfU, 0x3b1755803d76f528U,
  0x3d5052483dc6b920U, 0x3d939aecbdc97338U, 0x3dff29a2bd2be78eU, 0xbd92e49f3d34a09fU,
  0x3d802082bb659040U, 0x3db9c7e03ba72140U, 0xbccb4d6c3e0cea0fU, 0xbc771bc0be016b88U,
  0x3cf28030bc59b947U, 0xbe0dac223c936878U, 0xbd2050fe3c2c08a0U, 0xbda8fab33da05510U,
  0xbcab4f543dcb9012U, 0xbca26600bbbd6f0fU, 0x3d0f1648bdf61c10U, 0x3cdedcc0bd72a2baU,
  0xbc7ccd50bd9f7b4aU, 0xbd7b0d7abd7a9986U, 0x3def497eba0f150fU, 0xbd58804c3de4dd42U,
  0x3cefc850bd351008U, 0xbe07c7acbb48b6c0U, 0x3d686eb03d2889f8U, 0x3da58b363e063ec0U,
  0x3d116fb43d88b39aU, 0xbddce5723da4adc2U, 0x3e08d4513d17b828U, 0xbdb6eccabc312fa0U,
  0xbd2e147ebe9ff323U, 0xbdf0e5043cb87178U, 0x3d8bd2903d43c840U, 0x3dc975883c9147d0U,
  0x3b614c80bd51b75eU, 0x3d8088d4bc9df083U, 0x3d9f55b63ca70b00U, 0x3d81abf6be0de2d5U,
  0xbe00afcbbcdb9474U, 0x3da00e40bd1eef62U, 0x3daaa5c0be2d1d49U, 0xbce041543dc95904U,
  0xbbba6c003e02ec7dU, 0x3e06ad71bce6e6a4U, 0xbd7175763d5940e0U, 0x3ddeee36be80b351U,
  0x3d4bf3d83ce95fc8U, 0xbcdd327cbc204610U, 0x3d9e14d83d5036a8U, 0xbdf4825e3d8f56a4U,
  0x3c9e2670be85dc06U, 0x3db8148c3b68cd00U, 0x3d7b99c03d248224U, 0x3cbf18883d9c35dcU,
  0x3e09a7ff3dfb0f62U, 0xbd7af65a3ccd399bU, 0x3d2141ac3dd0e110U, 0xbd8b7fc4bdd37d20U,
  0xbd22e920bc785b90U, 0x3d854ea23c9719e0U, 0x3d4190bcbd32d59bU, 0xbdccc8bbbdb4c0a2U,
  0xbc7b0308be04333eU, 0xbd553294bdfc869aU, 0x3c71d990be0a0831U, 0xbe08ab9dbcaf041cU,
  0xbdd644db3d36198cU, 0x3d1c4fd83daef906U, 0xbce673c7bea60632U, 0xbd491a97bd4cef26U,
  0x3eb22b5a3e9c2263U, 0x3c2b39913c9a9c22U, 0xbc00d9d9bd2d3639U, 0xbc01c03fbca65158U,
  0xbd50881bbc820849U, 0xbd67bda4bc6576dbU, 0xbd0f6304bd05304fU, 0xbc33ed35bc6804d2U,
  0xbdb4f624bbe2b020U, 0xbce9bdfebd92b213U, 0x3e6c30f43e2712cdU, 0xbcf033eb3e67bc1aU,
  0x3bf6fac13c6d81b6U, 0xbd5d3042bd2afdaaU, 0x3cf44e7c3dbea38bU, 0xbcc62be4bb867ba0U,
  0xbc899344bde4b370U, 0x3db63e6f3dbeec87U, 0xbdde95733daae3c3U, 0x3db3f93d3cf971acU,
  0xbd480832bde28bdbU, 0xbdc80ee03d9c673fU, 0xbdc1ebc3bd9a46ceU, 0x3defaccb3d0ec5faU,
  0xbd342c78bc73af68U, 0x3d563e163deae8b3U, 0xbde8475bba178c00U, 0xbd228a64bcba7478U,
  0x3cf1fe6cbd073b5aU, 0x3d145ca23c784228U, 0xbcec93ac3d77288aU, 0x3c84d974bd93a71bU,
  0xbd84a0aebdbce872U, 0x3d03e1e63d9acdb7U, 0xbd146d9abcb62a3cU, 0x3db3317dbd450862U,
  0x3d45e0febde146a2U, 0xbabd97003d799aa2U, 0x3cee4e04bd5ac8a6U, 0xbb5c54c03ae1e300U,
  0xbdba302ebdb3ae3aU, 0xbdacdd573d76c592U, 0xbb1553c03d8097edU, 0x3c1156ab3d65120aU,
  0xbdaa97653dc50634U, 0xbda3b165bcc0d86eU, 0xbd05f1da3d5a4cc9U, 0x3de9db4dbd309216U,
  0x3cb7250bbd37b705U, 0x3ddf18fbbd8d5f5eU, 0x3d88b670be0343c1U, 0x3d82e6e53d0c192eU,
  0x3d7fb0bfbcecbc70U, 0x3c9d5ea4bdcc7da8U, 0x3cdb1b93bc27d89cU, 0x3cb52ff6bd8b286dU,
  0xbdd2aaa43d577b7aU, 0xbd26c806bcc22461U, 0xbde8505dbd807a4aU, 0x3d17119ebdcbd881U,
  0xbd834d88bdd5af32U, 0xbdd0bba4bbdbd180U, 0xbde996803d6844a6U, 0xbcc8da90b9d07a00U,
  0xbd2bce983dafce6dU, 0xbdc9cdba3bca18f0U, 0xbc9674a8bd04f1d6U, 0xbc29dc903cf27becU,
  0xbdd7ca593cb4ed54U, 0x3d8a6d2f3cd5c864U, 0xbc221f003bac86d0U, 0x3dadfa35bd73e059U,
  0x3d3d79aa3c8ae864U, 0xbd94b50c3dea6029U, 0xbd4840e8bd7590a2U, 0xbc3762c8bd22925eU,
  0x3d01e81a3d96532bU, 0x3db5deafbd846c9dU, 0xbd8fa038bc24bb60U, 0x3c5ec1183d70a30aU,
  0x3d0b10cebdaab05dU, 0x3da7bbcdbc2c3e40U, 0x3d8ee56bbd89f5a6U, 0xbdaf2c02bde6f33dU,
  0xbc6a66383d9aadc3U, 0xbda8ef5c3dac5ddfU, 0xbd8682c23dc5ddc9U, 0xbdac0f503b408600U,
  0x3dd4ff913c0a16e8U, 0x3dbcccf1bd3903beU, 0xbd007d623de8b8d3U, 0x3d738cbe3da92fc1U,
  0x3de69ebd39e3cc00U, 0xbdda3e653ce01eacU, 0x3d90e9453d9e99a5U, 0xbd015562bd617246U,
  0xbce51628bc07abe8U, 0xbdbe47f23da7e54dU, 0x3da30aafbdb33175U, 0x3d83b5c33d654a1aU,
  0x3dafc3793d9ddf6fU, 0x3d40fa7a3dc9dc1dU, 0xbce2301cbdd7025fU, 0xbdf4143dbdb0e138U,
  0x3d8c0f19bd95b9abU, 0x3d5c5a3abd057dfaU, 0xbdbb5243bdbff728U, 0xbdef32ddbc8e3eacU,
  0xbd1fb6dc3c879234U, 0xbcd6feac3c1d8648U, 0xbd6144583db8a06bU, 0xbda14fb43ca23c94U,
  0x3d069ff23da36adfU, 0xbd210a8abddf72acU, 0x3dad83353da9bbffU, 0x3d994b273d943529U,
  0x3d9d4915bcb33abcU, 0xbdd78447bc53c178U, 0x3d609382bd150ec0U, 0xbdc739adbde2f008U,
  0xbd3bcc303d9e97dbU, 0xbab698003b409e60U, 0x3db80c2f3dc7c1dfU, 0xbdc3dbad3d439352U,
  0x3db112e33d6787aaU, 0x3da7f6973dc3636bU, 0xbdd64b1cbb9ee120U, 0x3d3d6c223d836cd1U,
  0xbde8c1bc3df30e8fU, 0x3d20937ebdc2a18aU, 0xbd44ca963dd9b587U, 0x3de6a77d3da760dbU,
  0xbdb3a5f23cc4563cU, 0xbd8ae690bf77e1d3U, 0x3c2da7233d0bd68eU, 0xbf9b0d6abf7eaf80U,
  0x3dd0d8c0bad0bb40U, 0x3bf747d03c6ec338U, 0x3d1d3e12b9e8ebe0U, 0x3c1717e23d035fa0U,
  0xbdd94af5bd2b0ca3U, 0x3c8ec7acbcf56e3bU, 0xbdb248393d464ac6U, 0xbe15e7ae3db3c41cU,
  0xbd3521cabcc4a510U, 0xbde26b4d3d1e153eU, 0xbc1ef6c4bab9d040U, 0xbd4033a4bc3f55c3U,
  0x3bd68b903d39bc12U, 0xbc8e5bd4bd58aeccU, 0x3d13ffd2bdca24ebU, 0x3ce5ee8cbd79933fU,
  0x3dba602bbcf5f188U, 0xbd0d5172bdb0da14U, 0x3cac5ad43d0c7b3aU, 0xbdc772f1bdaec1dbU,
  0xbde79d4abdf30a7aU, 0xbdb17f343d5f533aU, 0xbd93fb4c3dd881f7U, 0xbc4c2650bdbb6d7fU,
  0xbd1711ec3b3b40c0U, 0xbd7d1a993de2a0c1U, 0xbdb09d963d7eb2c6U, 0x3d939877bdbab1cdU,
  0xbdf035db3d8d0553U, 0x3cbde4c43d8435dbU, 0x3d2bb22e3dab0503U, 0x3d26fd6abddae059U,
  0xbd40c236bd93e846U, 0xbd47e582bd5ffae2U, 0x3d4ddfc23d9abb57U, 0xbde9f96bbd927929U,
  0x3c701bb8bdcbd9e8U, 0x3de4aae1bd02f8b4U, 0x3ca302a4bcd96afcU, 0xbdc9a932bdefd682U,
  0x3d17eacebd1d1186U, 0x3d31adbebd80ec03U, 0xbdc7b740bdbd35e5U, 0x3cf18bc4bdd7187bU,
  0xbdaada7e3d2a019eU, 0x3d966993bd62b9eaU, 0x3daeaf55bccd3158U, 0xba944680bbd72a90U,
  0x3d167a463dcc8815U, 0x3c959bdc3d81bb67U, 0xbb8e6360bde578fbU, 0xbd38d576bd41f588U,
  0x3deaf05f3da64113U, 0xbd9194d4bde3d082U, 0x3db5a5f7bd52aa4cU, 0x3d483dde3ba3ff60U,
  0xbd00ad74bd601744U, 0x3de2e4273d10f5b2U, 0x3d154626bdd5b10cU, 0x3b4bf3e03c9bff84U,
  0x3d8eed95bcce5e5cU, 0x3d91d591bd95714cU, 0x3dd53f593bf90b70U, 0xbdb216fe3c241148U,
  0x3de36cc5bd84123dU, 0xbde228d8bdb39b30U, 0x3cb837d4bdc8ebf2U, 0xbd1d851abd0e3656U,
  0xbd914ea73dccb22bU, 0xbdd336cc3cc7314cU, 0x3dedb7c93de24a63U, 0x3d42227a3dc82095U,
  0x3c1d52183dd2347fU, 0x3d86da213dcb79a9U, 0x3be6cdf0bdb365a5U, 0x3d8405613d4a56feU,
  0x3d7a858ebdd13799U, 0xbd9354bdbdc277f2U, 0xbdaffd46bd581cdcU, 0xbd892b0abb975c20U,
  0xbda61400bcbd3390U, 0xbdf2a5363d397dbeU, 0xbde57ec73b7b4540U, 0xbdc0339a3de7f92dU,
  0xbd8b7348bc25efe0U, 0x3c1f3a38bd0702e8U, 0x3dc29619bd4822b4U, 0x3bbe8dcc3d9af255U,
  0x3cec55a93eeb5b07U, 0xbe03ab63bd86adfaU, 0x3d8966453e901b59U, 0xbdc9a38bbc6a7f2aU,
  0xbdac3723bc4d4260U, 0xbd7dd25ebdc419cfU, 0x3ee960d6bd944f30U, 0x3dc01ca8bd2f6fecU,
  0xbdf5dde4bc6a5871U, 0xbcbcd79cbe062a26U, 0x3ca2e8013f206a06U, 0x3ddc444e3e18a826U,
  0xbc6188513ca507a8U, 0xbd88a7f33d9a60a1U, 0xbdb25a003cbd1b2cU, 0xbd4ae3fabdab9d64U,
  0xbcd8834c3d4e6c9eU, 0x3d8426933dbf68edU, 0x3deda2133dca7391U, 0x3d3316a2bd89334eU,
  0xbd4bd12a3d7d09deU, 0xbcfac8fcbd5c1afeU, 0xbddb24d6bd4d702eU, 0x3caa26143c9314fcU,
  0x3d2eca3abd689bc2U, 0x3d21dda63b7d46c0U, 0x3b162dc03c7f5938U, 0x3dab4c9d3db58debU,
  0xbdcf46be3d8ad4e7U, 0x3d7d995a3d510a7aU, 0x3d4da4e23d2a0432U, 0x3d8da45b3bc83df0U,
  0xbde9a6c5bd95f64cU, 0xbd565c80bd6c49ceU, 0x3d1307e63d593a42U, 0xbd1a21f6bd874b65U,
  0x3dc700593da07f6fU, 0xbdd894ffbd2f06d2U, 0x3ddcc1a33b681400U, 0x3c2b6da8bdc45a1aU,
  0x3bb00df03da31cb7U, 0xbd5034903d469fb6U, 0xbd2e46823db2b30fU, 0x3d9465c9bd829940U,
  0xbd3f8a76bd8852b8U, 0xbcc0458c3dc633f7U, 0xbd5fd6c23d9ca54bU, 0xbdd585553de28c2bU,
  0xbd4b118a3d8dfc15U, 0xbd6eb3143d1f42e6U, 0xbdeb7590bd4c98b6U, 0xbd072b3ebdae8d62U,
  0xbc9292583ddaf7fbU, 0xbd89b2903d9c926dU, 0xbcb4a15cbd86d4aaU, 0x3d81ccddbddb9ff1U,
  0xbd4ab8f23dddc4edU, 0xbd14e96ebd6e3d87U, 0x3d74ea0ebda71a1aU, 0xbdd1ac0fbd3fe448U,
  0x3dc661c13c08c788U, 0x3d803fa5bdeb8f01U, 0xbcd19740bdd84df5U, 0xbdc34f0bbd72fe3eU,
  0xbdde0e50bd3192f8U, 0x3cab44543db5e295U, 0xbcacbafcbcd60b90U, 0x3c93f194bce2f07cU,
  0x3c6e4ac8bc969a04U, 0x3cc64fa43d3b49feU, 0x3d2aa5c2bcd808e8U, 0xbd641b68bd4f4aceU,
  0xbdeec8663dc4ce09U, 0xbd286f023da38d69U, 0x3dee7c033cacbfecU, 0xbd0b1f283df3af0fU,
  0x3d807f3fbdc9479bU, 0xbde837cabd6b74d8U, 0x3defce05bd0bb7aaU, 0xbcef3178bd67114cU,
  0x3d7e7e2e3d14fd0eU, 0xbd77d702bd8c2e28U, 0x3d23d12a3ced4e8cU, 0x3da1ee21bc835270U,
  0x3d6c9ba6bc0f7c20U, 0x3c819a0cbd465aaaU, 0x3da54085bd664392U, 0x3c6213983dc60ed3U,
  0x3dec068b3d399e4aU, 0x3cb600ffbec65b78U, 0x3d26398ebdb062a2U, 0xc0832aefbddfc282U,
  0xbd0efc3e3d4e253dU, 0x3d451f1dbcfbf339U, 0x3cc1e15d3d42f1c7U, 0x3d1c405b3dc6e2efU,
  0xbc177e38bd8323cdU, 0xbd2ec75e3d197575U, 0xbdce08643c451bafU, 0xbbc405f6bd82337aU,
  0x3d761d163dad5f95U, 0x3cb3118f3d3c392aU, 0xbccf5b85bcc9cfe7U, 0x3daa45893b35a857U,
  0x3d3aaab63db08005U, 0xbdb69d37bd85fe0cU, 0xbc4c7c403dd6114bU, 0xbcc6a1543d23a3feU,
  0x3da6060fbd7a1fc6U, 0x3b04e860bd716ba1U, 0x3ddd1e5b3b431300U, 0x3c976e64bda133a8U,
  0x3dcaa8ef3decd8a9U, 0xbd9ec9063d562edaU, 0xbdaf90b8bc856754U, 0x3dd8ab2bbd7eff06U,
  0xbd066836bd7bf561U, 0x3b4b20a0bc1b56d0U, 0x3db711513dcd3651U, 0x3d98ae0dbdba3a7dU,
  0xbc3774d83dace34dU, 0x3d940bb7bd8975aeU, 0x3d8719e9bd67c918U, 0xbd8541d8bd1a5398U,
  0xbd39c7403de1ad93U, 0xbd0779703d06ffdaU, 0xbc37a0583dad1e63U, 0x3d9904eb3d87e995U,
  0x3aceaa80bbfe4ef0U, 0x3de4cc17bdb86f9cU, 0x3d2f209a3dd51d99U, 0x3dc87b1b3dc58af1U,
  0x3da8ab253d59c3caU, 0x3d6c035ebdc95630U, 0x3d9daeddbd42f4c6U, 0x3d1491963dd167b9U,
  0x3d798af6bddf2895U, 0x3c677ee8bde6a741U, 0x3ccfc7fc3d314cf6U, 0xbc916564bd5e7590U,
  0xbde1aaf13d76fe5eU, 0xbc92be183ba8af60U, 0xbda61be4bd1bf544U, 0x3d353d66bdf2dc03U,
  0x3b8298003d7629d6U, 0x3dbbb873bdb4af9eU, 0x3ce2254c3da1e20bU, 0xbdef59c13d7c4cb2U,
  0x3d63ee423bfcdb70U, 0xbd006562bd1fd488U, 0xbd9ede54bca69278U, 0x3de21c153d90f13fU,
  0xbdb375d7ba660580U, 0xbd31e6d83ce9b6a4U, 0x3d9de1453df03865U, 0xbdc6a6b53d103caeU,
  0xbb99a5903d7c0a52U, 0x3dd8dc93bddda498U, 0x3c92747c3dcaad3bU, 0xbde857f1bdcce9b0U,
  0x3de9560fbdb8c91eU, 0xbcd964b8bd9a9652U, 0xbddf6e02bd018618U, 0x3d948d61bc4a6620U,
  0x3dd98defbd26f1b4U, 0x3db877b13d4084faU, 0x3db0bf37bd59bcb6U, 0x3cab66543d823f89U,
  0x3da1451f3d553216U, 0x3de00689bdf44295U, 0x3dbe8dd3bcf13a1cU, 0x3cc9f97c3d578126U,
  0x3ddee7713dc5e985U, 0x3dee0a91bd823dccU, 0x3c9584043daef0b1U, 0xbd3b96c4bde948e6U,
  0xbdba20543d92023dU, 0x3bfbb250bbeb2070U, 0xbd04f6b4bde602bbU, 0xbeb5aa1cbdb7c9acU,
  0xbeee95f3beb5464fU, 0xbd71391b3e015390U, 0x3ca38e71be85ded8U, 0xbdb80613beb04543U,
  0xbdd69d36bef8911dU, 0xbe69dc593d65c379U, 0xbe0df6123d845154U, 0xbf1a050abd287116U,
  0x3de5ee6ebdf17e48U, 0xbf5e682bbe1b48e9U, 0x3dc6b8bcbe44a436U, 0x3e8116963d815960U,
  0xbe0e28143e8fa112U, 0x3c4906a8be2d9c92U, 0xbb359a20bde3e259U, 0xbd392f84bd89886bU,
  0xbda7ca9ebb624e20U, 0x3be17750bdd8078fU, 0x3cde872cbdaa8934U, 0xbca3951cbde69b6fU,
  0xbd2d36a0bdaa1e4aU, 0xbcb09b243d0ed0caU, 0xbdb77bee3d729956U, 0xbdd55858bd347ec2U,
  0x38a90000bd4ce832U, 0x3d9a3d113d7d7302U, 0xbdd81978bd108ffcU, 0xbd76a3fc3dbd873fU,
  0x3c0020e83d8c1225U, 0x3d2b1e063b801f40U, 0xbd048e74bde8589dU, 0x3da4911f3da90b7bU,
  0x3d79ae62bcf49eecU, 0xbdbf2040bd58a6f0U, 0xbda4739dbd5e4e56U, 0xbd9ad9073d0df7daU,
  0xbda41ccc3d320d82U, 0xbd1d3578bb808b40U, 0x3d8874193c9f2a7cU, 0x3c9a27943d43b492U,
  0xbde969c03d821197U, 0xbcbf9608bd976480U, 0xbda669c23d213dfeU, 0xbddc29b53dbf750dU,
  0xbdcd76343db37b61U, 0xbc9dd230bd1499faU, 0xbd1f573e3dc0dcfbU, 0x3d9170bbbd6c3711U,
  0xbd0c9e6ebdb09689U, 0x3b9bde703d7c5066U, 0xbd32ee1ebd3e26a4U, 0x3d8aa7ed39c19d00U,
  0x3d91c63dbd8bcffdU, 0xbda575d83c1b36a8U, 0x3dec21db3df0d699U, 0x3dc93f3dbdd25505U,
  0x3dc0444f3b0ab460U, 0x3da3a3493cc65274U, 0x3d8a408f3c326f78U, 0xbd79e2d1bdb50d0aU,
  0x3da3e60dbcf6d0ecU, 0xbdf1efa83d31db7eU, 0x3d38921abd937490U, 0xbd8f7f20bc91e2e4U,
  0xbdea33f1bd904202U, 0xbd94423f3cc805acU, 0xbdbdaf773d1f604aU, 0x3de31e59bdc71212U,
  0x3dedac5fbd9fc825U, 0xbd70d2ca3dbf4411U, 0x3c54f0d83dcc378dU, 0xbd926b1ebde0b93dU,
  0xbd3bfdb4bd894574U, 0x3cf33bb43d06724eU, 0x3d5d34063d8820e1U, 0xbcd05fa8bd93ced5U,
  0x3dd64b7dbdcc9346U, 0xbdbf8b453ba0f320U, 0xbc941bc43da32967U, 0x3ce65f043cbfb67cU,
  0xbcae9d70bcf44d88U, 0xbd16c1f63d9754efU, 0xbda06eb03d06c6caU, 0xbdaf5d1a3dcf3159U,
  0x3c68a3583d82c28fU, 0x3db989bb3d11034aU, 0x3ba4a0403d821f15U, 0x3d4e71febd8ee4a5U,
  0xbd6e2b083d5f517eU, 0x3b9cb4853d6c0721U, 0x3d56873a3dcedcb7U, 0x3dba76a7bd99906eU,
  0xbc8fddef3ce0a42cU, 0x3a272900bdd6e12aU, 0xbde3ffe23c74cb4eU, 0x3da63002bdeeb4b4U,
  0xbd3844d63cfa0b31U, 0xbdea0e843c362ad9U, 0x3dd8f42bbdbf084cU, 0x395122843d82402eU,
  0xbdbc13b2bcee3b80U, 0xbdbb3415bd2a3364U, 0xbd934e7b3d334ac6U, 0xbd2e0a1c3dbb8b18U,
  0x3dac5f61bd1c7546U, 0x3de7787bbbaf7160U, 0x3d3ce7c23d52a1aaU, 0xbd5338443c34b408U,
  0x3c43d9e8bc6a3ea8U, 0xbc0057683ddf40b1U, 0x3d910b7f3c512728U, 0xbd3c86223db81955U,
  0x3d40f09ebde7d705U, 0xbcbab208bd884e1eU, 0x3dbfe8b5bd31912cU, 0xbd5c77b63de4324bU,
  0xbda9c0b43bfa7650U, 0x3d0032763d1021d2U, 0x3d88c0473da78c11U, 0xbbade6f03c30a878U,
  0xbc99a0683d8a8673U, 0x3df4a9ed3d61014aU, 0x3d46e776bc6237f0U, 0xbdd3b7ac3d857207U,
  0x3d9502ef3cbca73cU, 0xbdf085c2bd5a9de4U, 0xbd69ab573da47f75U, 0xbdd212afbde40da1U,
  0x3c428458bd6845a4U, 0xbd914103bc34f190U, 0xbd909ac9bda12116U, 0x3d8396d1bd995dc0U,
  0xbc8e65c0bdd7627bU, 0xbcdbc980bdcd13b7U, 0xbd680fd23c958f9cU, 0xbb449f60bd88afd8U,
  0x3d37c936bdaaf868U, 0x3ba756e03ba2c0b0U, 0xbcf5a65c3dd953ddU, 0xbdee44393d21499eU,
  0xbc6e7f803d40661eU, 0xbdc9f7d43dc5aa01U, 0x3cbe048cbc314698U, 0x3d6d1a3abc612f90U,
  0x3da530bb3dbef9b5U, 0x3dd29247bd36e1bcU, 0xbd765b13bd8568b4U, 0x3d8efe133d70bc32U,
  0x3dad64953d98082bU, 0xbde7d2823d4980aaU, 0x3d206a06bcb73a18U, 0xbd9e166a3d4dce36U,
  0xbdb02cf83d8b6e57U, 0xbde0361b3dd14e31U, 0x3b633fa03d86fa07U, 0xbdefb95fbd6603b8U,
  0x3cda86343d8cf61fU, 0xbd53b8203dde3edfU, 0xbca2eb34bcc24818U, 0x3d615f8a3d52c206U,
  0xbdb15b8e3cf9dc84U, 0x3c7a2fa8bd0310d8U, 0x3db16d233c799a18U, 0xbdc31c183db0a07fU,
  0x3df167253d1ae386U, 0x3ccf68acbd88f081U, 0xbdb67bcc3d278ce6U, 0x3d0c62e23c977d1cU,
  0xbda43d2cbd6211e6U, 0x3cd8b2dcbda5a2eeU, 0xbdd72901bb62a800U, 0x3d6c118abd29a49aU,
  0x3d05b7963d0259b6U, 0x3d8837a1bdcea4f0U, 0xbd8fd136bdeaed42U, 0xbda045e23d8a5945U,
  0x3d6ce25abd72797bU, 0xbd8a8b703dd09d2dU, 0xbd3200d63db07d2fU, 0xbdcb1e573c40add1U,
  0xbdec39723a1da715U, 0x3e83921c3e8a67e2U, 0x3d17f1543d508685U, 0x3b4acb20be3fb4b3U,
  0xbc050ebf3c7f8a07U, 0xbe01351bbd4ac034U, 0xbe0c84cfbc9a7adeU, 0xbe7b59e4bcdf8effU,
  0x3de7af03bd05cf59U, 0xbe89d77c3c5dc7faU, 0xbd9df147be5394aaU, 0xbee20627beb52f79U,
  0xbe71f9bebecec6f4U, 0x3d4a61633d89387bU, 0xbd9c40a4bcf71588U, 0x3dac7a55bd79da73U,
  0x3d39a816bda2a4fcU, 0xbdc63fe3bd0a546aU, 0x3dd63a733c1b1478U, 0x3c33edb83cab500cU,
  0x3d5f81cebd19d44eU, 0xbd96c96ebd463654U, 0xbdc3ff3c3c9e6ae4U, 0x3d08f156bdc04ed7U,
  0xbc5732d83dcb487bU, 0xbd237f4abc2adcb8U, 0xbc472060bcebb210U, 0x3dd3eef7bd985b16U,
  0x3dd41e67bd5fe97eU, 0xbda445d23d4ccac2U, 0xba8e7200bd248368U, 0x3d12fd9e3d94aa09U,
  0xbdea0cee3dd4fac3U, 0x3ca5a194bc566a08U, 0xbd93bbbd3ddad1cfU, 0x3d27ee4ebddc5387U,
  0x3dad04193d177e36U, 0xbd4ce08c3d371f6eU, 0xbca36c483d6adcb2U, 0x3de4d69f3d8af32bU,
  0xbc94d1803dca0a3bU, 0xbc428f90bd2d689eU, 0x3d95dc633c642168U, 0x3cd809ccbd646eaeU,
  0xbdc02d2abd623564U, 0xbd463e74bd98b37aU, 0x3d45216abd064b14U, 0x3dbd5413bd887b72U,
  0xbc02b5803df49415U, 0x3dc4fae73bcb48f0U, 0x3d769742bdc362c8U, 0xbd578ede3ccf10dcU,
  0xbdca2e823d1299a6U, 0x3dc057edbde2502bU, 0xbdacd091bd05dea4U, 0xbce57520bcae2ca8U,
  0x3da8368dbd2eb948U, 0x3de3fa313dd2a5a7U, 0xbdf3dc58bdc14f3fU, 0x3d789c0a3d5608e6U,
  0x3d661c9abcf28078U, 0xbdf40cd3bdba4286U, 0x3d105e72bd14a880U, 0xbd0566663cd16014U,
  0xbd89063a3d38fc4eU, 0x3d108b423da84c51U, 0x3d0cb05e3de30bfbU, 0x3c6da7a83d1ace7eU,
  0xbdc316e6bdb1be9cU, 0xbd026d56bd2325f4U, 0xbdd90a03bd10ede6U, 0x3ceda04c3d982dd9U,
  0x3bfe8850bdd96b05U, 0x3ddb1d43bc7d6220U, 0xbdc7d1a6bd2e9004U, 0x3dcd4f03bdd904c4U,
  0xbdec8c703de12185U, 0x3dc46bddbdada2caU, 0xbdd13ec9bdf35a65U, 0xbc42be30bc113380U,
  0x3c799b38bd3bd14cU, 0x3ddfee553da499f7U, 0xbd8f71943de6c8cfU, 0x3d79770a3c64d698U,
  0x3d84ca0dbd416726U, 0x3db7cbe93def40d9U, 0x3cc3dfe4bd35697aU, 0xbdc510223c782348U,
  0xbd6f368ebd7f277cU, 0xbd9e77dabcb90c98U, 0x3d4235f53d0e2923U, 0xbda20dbbbbc41f33U,
  0xbd27ace33eec92ffU, 0x3dce3129bd154ec2U, 0x3c8f2f99bc08d054U, 0xbdb4220a3d3f43f2U,
  0xbe006b86bc9f71bfU, 0xbc4f3a58bd9c595eU, 0xbd7beee2be355177U, 0x3ccf63cfbd85ff9eU,
  0xbd5997eabe777debU, 0x3e433cda3e39498eU, 0xbbb47fa03e04f37cU, 0xbe68dc77be5e7114U,
  0x3da5e517bc4a68a0U, 0x3dd8475b3d0dd2faU, 0x3dcb798b3d0b5d9aU, 0x3c3eaa28bdd451faU,
  0xbd67f972bd5a521eU, 0x3cced79c3cf6769cU, 0xbd8bbb76bbac24d0U, 0x3de2f1073b4eb960U,
  0xbac04280bcea6b00U, 0xbd8728a1bb4ed340U, 0xbd926f0cbd5db51aU, 0xbdc85ede3d848d49U,
  0xbddd73523dd992a3U, 0x3da91c3d3d9c78ddU, 0xbd5e766ebc80c068U, 0xbd425d38bcdce6ecU,
  0x3b21b8c03be25f70U, 0xbd169cda3d2ca96eU, 0x3dc359e73c157ef8U, 0xbc82b5ccbd2aeb9eU,
  0x3c83594c3dbbe7b9U, 0x3db797c13ddd5703U, 0x3d6ce686bd05424eU, 0xbd4f6f243d653d36U,
  0xbc507ff0bdc4c289U, 0xbd4aa21ebda7fac2U, 0xbde30b40bd4c3a32U, 0xbc420fb0bb79d880U,
  0x3d94634bbd52a478U, 0x3d8baee13d57f6a6U, 0xbd3dcbd6bd1f7f6eU, 0x3d2ac7ca3d9b8655U,
  0x3d5a3c16bd84fd4cU, 0xbcb6fa70b9a89a00U, 0xbd01715abcc52214U, 0xbd4d35ea3d9fd6e1U,
  0x3d5efedebcb21394U, 0xbb352f80bd2a81c0U, 0x3dedd4a1bdb75e5aU, 0x3dedaf173d302e42U,
  0x39ba1d00bdd32797U, 0x3dcea18bbdd87644U, 0x3dc6de453d7b814aU, 0x3df213f33de2adc9U,
  0xbde75be9bdb6b3f4U, 0x3ca833e4bcd71ee0U, 0xbdd02d74bdc6de68U, 0xbdc3bf703d6d9b46U,
  0x3d24b6f23d76f132U, 0xbd121f763d3ccc7aU, 0xbd306da03d56e162U, 0x3d8a465b3da948f5U,
  0xbd9327c13db87aa7U, 0x3dae672b3c626748U, 0xbd5799debdb948eeU, 0x3c40be983cd3c50cU,
  0xbcaae758bc5c5610U, 0xbdd5a2643db1ac7dU, 0xbd1edba8bd97753fU, 0x3d83ccef3c6362b8U,
  0x3c8cd28c3dd92847U, 0xbaf2c500bdb372e2U, 0xbb9daef0bd8a1017U, 0xbd9ce1cebd8934bcU,
  0x3cdd9edcbd1525e0U, 0x3d4c40e6bb47d720U, 0x3d2f049abc9970e4U, 0x3cf3e14cbdd14bd0U,
  0xbdad279cbd7e8543U, 0xbdb8c8b33da66433U, 0x3d31c77ebd6421f2U, 0x3d356fce3d80f9f7U,
  0xbd64b8203d49e212U, 0xbd8ad5ccbd53de76U, 0x3dd315333d1d0346U, 0x3d98f913bdc45bbbU,
  0x3dd503c3be1666e1U, 0x3e44909cbedb0a87U, 0x3df0db62bf648264U, 0x3db73ca1bc791327U,
  0x3d8a380b3dacbbfbU, 0x3d0de5dd3d459920U, 0x3d5ed83fbcb8a855U, 0xbcbb1dd1bac08a6eU,
  0xbdcc20ef3c27b9feU, 0xbcbd2386bd58dabeU, 0x3d549788be1aca1cU, 0xbdf69b813d373789U,
  0xbbba49b83d7ba22eU, 0x3db592cf3d63813bU, 0xbcb1ae48bd859090U, 0x3b36cf60bddff622U,
  0x3c06e808bc670948U, 0x3dc9c20bbd6a7468U, 0xbd5b411abdbe8b58U, 0x3d66525e3c3da338U,
  0x3c9b3854bd4adf22U, 0x3d9dd9cdbdb19ff0U, 0x3dca748dbd3ebc60U, 0xbd2951ecbdba9a54U,
  0xbdea9abebdd04f65U, 0xbdd16aefbdc2d7ceU, 0xbde587f3bdb21484U, 0xbdc46168bbbc2700U,
  0x3d00a33ebd262410U, 0xbd8ccf1c3c259b98U, 0xbcada8d4bd9e8a64U, 0x3d80d3393ad41cc0U,
  0x3d8c74d7bdf15881U, 0x3cea57b43da296e5U, 0x3d2b8b3ebde588b2U, 0x3dd6a765bdeab9ddU,
  0xbd5349bebcaff8b4U, 0xba4f1c803d4760eeU, 0xbd9ebef03dd86bb7U, 0xbd1302eabded448cU,
  0x3d8c7fbf3d133996U, 0x3d2a21cebd993346U, 0xbc2e1940bda97a7cU, 0x3d810a673d894e0fU,
  0xbd04ad683d3dcb62U, 0x3b32c9203d196b36U, 0xbde48c9cbda7f765U, 0x3dcd2047bdad0788U,
  0x3d7b7adebd851108U, 0x3dcebd933d5a62d2U, 0x3dabf1b7bdccff3bU, 0xbd8201973dd3f48bU,
  0x3d4c635a3db3fa49U, 0xbd575c50bd901105U, 0xbdc90ba63d986e3bU, 0x3dc05b173d1ab84aU,
  0xbd3124603da67c01U, 0x3d5524863d6c8f3eU, 0x3cda8f54bd89e150U, 0xbd8e2b533d96440bU,
  0xbdf3f2883db4ca51U, 0x3d84df21bbb53f80U, 0x3d80e1b5bce87680U, 0x3ccb3bb4bda98cfbU,
  0x3c125be83d49bc46U, 0xbdebd5493d909a33U, 0x3dce0dd1bd94fde6U, 0xbd189736bd4621aeU,
  0x3d251a123d881e93U, 0x3d8d3191bd73e36dU, 0x3dadeae13d00c192U, 0x3a1f0080bd035cdcU,
  0x3deeb9af3c11cb68U, 0x3dc495c53d04627eU, 0xbbb328803d03088aU, 0x3ce99dc43d9bf557U,
  0xbca17cec3dab3a9bU, 0x3de53fe13dd9bb09U, 0x3d2e43323d24a36aU, 0x3d9c07ad3ddce85dU,
  0x3d3517c2bdbc4297U, 0x3bfbbe10bdba5e7eU, 0xbda48b28bdd5b934U, 0x3dcccb0f3de01f61U,
  0xbcb2b568bd984c41U, 0xbc21de183d82d055U, 0xbdd62fc5bd7dee09U, 0x3d9c3e8d3d62524aU,
  0x3d248626bd35bceeU, 0xbdeab34b3ced4782U, 0x3dbcf8973d60c68fU, 0xbd37bcb2bde842a8U,
  0x3d9e40d73dbc8ad3U, 0x3a55d3803c39dfddU, 0xbd9869c63d2023d1U, 0xbdc3dd9bbcedf7a6U,
  0xbceffed0bd0b81c1U, 0xbddc4f8f3db8f15bU, 0x3d8ab9593db2a19eU, 0xbdee5d6d3d20ea88U,
  0x3d14f16e3cf054c4U, 0xbd847ceebdedaa2cU, 0x3c57d25ebbeed660U, 0x3d68384e3dcf55cfU,
  0x3da366493da7aaa1U, 0x3dae34f3bd1fcdc0U, 0xbd40b8803d57ae72U, 0xbddce322bd94f4e7U,
  0x3d596932bde13f50U, 0xbcb1eec4bdf243b6U, 0x3d9e5f3fbcea0bbcU, 0x3d419e3abde589d5U,
  0xbd4c01e03c6fbd38U, 0x3d87d7f7bc936e08U, 0xbdd92a22bd83b412U, 0xbae02840bd91cfd8U,
  0xbddc729abddec5a9U, 0x3d51815abd8b588eU, 0xbd9b38db3c6581b8U, 0xbdd209a5bdd99cb6U,
  0xbd0a691e3d906977U, 0x3d971aa5bd8a6631U, 0xbccd6414bd1c7442U, 0xbc6f4798bd999b65U,
  0xbba69e203d99f8cdU, 0xbd4b5a543df4210fU, 0x3daa9dcf3b598340U, 0xbc7028a83d33baceU,
  0xbd7dd4e8bd2307dcU, 0xbdd7ff89bcb23340U, 0xbb8cf970bd78d4d8U, 0xbd075fecbda553ceU,
  0xbcad2f283df0dc5dU, 0xbc322b983d51f2beU, 0x3da1fe35bdefd0d4U, 0x3d2bb01ebda848bbU,
  0xbd67c0943dc78f1bU, 0x3d2f844abd2d8d38U, 0xbc801aa03dcbd8e1U, 0xbd6cba833d4b512aU,
  0x3d7c8e863c443e58U, 0x391090003db629ddU, 0x3d0bceda3c3bf5a8U, 0xbd9959103de375f5U,
  0xbde334cdbda98da0U, 0xbdcdf08cbbadb310U, 0xbda012a3bd5038a0U, 0xbcd3e0043d0be686U,
  0xbb4bc2a0bdde5002U, 0x3def6723bbb1c920U, 0xbde8c90a3c667928U, 0xbda754663d9dbf0fU,
  0x3ce29cb4bdc5ad90U, 0xbd2950563dc100e3U, 0x3de7508bbdecbc6dU, 0xbd649c56bd5374dcU,
  0x3d2cc20e3df45d31U, 0x3db1dd5fbdaeb359U, 0xbd463052bdd056bbU, 0x3d78b2de3dbde11dU,
  0xbd88a96bbc948100U, 0x3dc8cdd7bdda4d02U, 0xbc865af83df2c409U, 0x3d0da036bda16de2U,
  0xb9e368003de6d723U, 0x3ce18fb4bd9eec44U, 0xbdece5e3bbcb7f80U, 0xbcacf6cc3c90502cU,
  0x3db6a69dbdab34c0U, 0x3c2ece883cc7a054U, 0xbdf48c4c3ddfc1cbU, 0xbd943f143d80c355U,
  0xbdecd4643c5ed0d8U, 0xbc60e388bdc84e94U, 0x3d6c939a3dc96087U, 0x3d88c8b7bd251052U,
  0x3dc6d3a53c2529b8U, 0xbd87ce42bd5f78c0U, 0xbb0ed020bde190b5U, 0xbd8f2716bd5fba3dU,
  0xbd6e85d7bdf1b740U, 0xbdcbaa88bdd3f8c8U, 0x3de3d201bac3fe31U, 0xbda8865abe0323deU,
  0xbde4ed44bd71135aU, 0xbdd2f5353c85833cU, 0x3dce396d3db98f7bU, 0x3cb62900bd58fde4U,
  0xbd6e2185bda3b1caU, 0x3d519a1fbd53e508U, 0xbdf022d93d21a419U, 0x3de41019bd312d7fU,
  0x3d5ebc17bd29cf8bU, 0xbdaf23223d9f2d31U, 0xbde15b07bcfdbdb0U, 0x3db53ee9bdeaf238U,
  0xbcb73a90bd875fecU, 0xbd4edd983d932637U, 0x3d44d3da3c2a8ff8U, 0xbca40b04bcda6bb8U,
  0xbded94e2bdae6674U, 0xbd8b0fd03d53673eU, 0xbdde0934bd675bdaU, 0x3dd5ee8bbddb26cbU,
  0xbdd1795e3cae584cU, 0xbdb36d843dc25a8fU, 0xbdefd3b6bdd19702U, 0x3d86c8c5bb9a55b0U,
  0x3d2a907abdb3b6feU, 0x3c5d0758bcad1d1cU, 0x3d6801c6bd31aa46U, 0x3d8069a9bdbc6bdbU,
  0xbc56d9c83c28d7a8U, 0x3dafe8e93d50b236U, 0x3dc4dd03bca410e0U, 0xbd8cddf2bd2a8bacU,
  0x3db8a497bda62e34U, 0x3d8e5a17bd78228cU, 0x3bc65e30bdd2c910U, 0xbd6c76bebd600fccU,
  0xbd7ad3e53dd986e1U, 0x3debcdd5bcb528d8U, 0xbbeb73203c7a4d68U, 0xbce47e60bd689bc2U,
  0xbde94f3c3d0ccac6U, 0x3dd3c079bc667328U, 0xbdba11ce3d52236aU, 0x3d495e92bde61c06U,
  0x3dcc73dfbb321740U, 0x3ddcfe3fbd98f0a4U, 0x3de9dcc33d85e04dU, 0xbdb6371dbdc8a92aU,
  0x3cee6c34bd8c65c0U, 0x3c8f4b2cbd5409aaU, 0xbc4aeba0bd849a58U, 0x3d0a3edebdcdf7f2U,
  0xbd3c465ebd4bcd68U, 0xbc9426d0bd6e6d30U, 0x39b44d003def636bU, 0xbc180fc03b19b7c0U,
  0xbd27f5923de12ed9U, 0xbd6f8bfc3d18f2f2U, 0x3dbd73e53cf5de7cU, 0x3d089272bccd41e4U,
  0xbdb20310bd819345U, 0x3cda06043defbfcfU, 0xbd9b8da43dc7ee6dU, 0x3d4604e63d86202fU,
  0x3d144e9e3d302522U, 0xbddbee023c83c01cU, 0xbda2b0063c0d3928U, 0x3d2713eabdcfea66U,
  0x3deb117dbdbceaf0U, 0x3bba64d0bc59f578U, 0x3d50173a3dd481ebU, 0xbda071c03d86d2e3U,
  0x3dd03b59bde2ebfbU, 0xbd670492bd6c894dU, 0xbd1d6fbcbdbcba1dU, 0xbd093342bcdc7e2cU,
  0x3d3e9a0a3dc5877fU, 0xbd88c3abbdd4d4d7U, 0x3c78e5c8bc987428U, 0x3d71835abd141fbcU,
  0xbd2163423dc4418dU, 0x3d8d70493de8da25U, 0x3d6487b23d318a2eU, 0x3db75967bd63f00cU,
  0x3d03788a3c89ce8cU, 0xbef425c7bc25ad5aU, 0xbf42c43c3d26a1a8U, 0xbcd9b2413df80d13U,
  0x3d5fc4c7bdbac511U, 0xbdd727c6bf0877ebU, 0x3d6036b3bec44acaU, 0xbe92eaf0bd070db2U,
  0xbb8c096c3da7ad98U, 0xbf3fddd1bd087f90U, 0xbd82eb3a3d20ccbeU, 0xbf843c923d6555f3U,
  0xbcc20c45bd807580U, 0xbd670ba9bd58e04cU, 0xbf3280a5bdeb1caaU, 0xbc599cf73d848ae3U,
  0x3d2708d2bcc2d3c0U, 0x3d616c7a3de49277U, 0x3d12c19ebc077718U, 0x3da924c9bd4d8206U,
  0x3b3525603d959fcbU, 0xbd801e0cbd8ab27eU, 0x3c9f3f443dca7c87U, 0xbdc3ae92bcea19d8U,
  0xbde3b902bdca4657U, 0x3d7e742a3ca1410cU, 0xbc823a08bdc6f3dcU, 0x3cfc3054bc44bd08U,
  0x3dad192dbb539180U, 0xbd0168debbd7aa40U, 0x3d1498c23d032522U, 0xbdaeb146bbad4fa0U,
  0xbd6eb9afba79d900U, 0x3d5866c23d7252c2U, 0xbdadeac63d944763U, 0xbde97dc23d4693e2U,
  0xbdab83c13de94061U, 0x3d57eb06bd810b9cU, 0x3def46c33bbbacd0U, 0x3def8b0fbd6248d8U,
  0x3d3084fe3d87ab17U, 0x3d6819e6bd8a3efdU, 0xbdaa81b43dc872d7U, 0xbd936052bdefaef9U,
  0x3dad1ac33debcd19U, 0xbb9231403cdeb064U, 0x3ca7cf54bdc94981U, 0xbc6f7d20bd8ed7c4U,
  0x3def083dbd80ba52U, 0xbd112fd83c3717d8U, 0xbdc00c89bc37b0d8U, 0xbd8fb376bde64eceU,
  0x3d9800213d5d8cbeU, 0xbdc8fb7cbc252548U, 0x3d608e2a3d1cf2eeU, 0xbd89c11abcaa3dfcU,
  0x3be216b0bd2e4892U, 0x3dd8a7e1ba1aa200U, 0x3d5cf3523d89d9fdU, 0xbdcbaf323d96fec1U,
  0x3da2c50f3c0f2768U, 0x3d890163bd90beb0U, 0x3bf180d03dcbb4dbU, 0x3de4bee9bdbb2edeU,
  0xbdb7bda83d50bb9eU, 0x3d70a776bd831088U, 0xbd188d243debf3fdU, 0xbd4c72863dc6bbafU,
  0xbca681ec3dce4a8dU, 0x3d3f3546bc3dc2e0U, 0x3dc63bad3d0d92b6U, 0xbcace5f43d97c1b3U,
  0x3d9e77173dbcb3f1U, 0xbd9f4c9ebcc7beb0U, 0xbd4c378abd99f5baU, 0x3b6209603dbdfe3fU,
  0x3de501a7bcafc9f8U, 0x3dc27da33cc800acU, 0xbc1c3c68bd982a5aU, 0xbd29d2b6bb81ab10U,
  0x3d6702723dc77d19U, 0xbda6eaf63c8441f4U, 0xbdc3eb8b3bcbe2b0U, 0xbddbfa01bca19b88U,
  0xbc8a6840bcd4d3f4U, 0x3daeb9433de6d639U, 0x3ddbac07bdba6fccU, 0xbdb0b7c33def7101U,
  0x3ce83074bd375278U, 0x3d372082bde9abbaU, 0xbd6d94223d9c0787U, 0x3d515bd7bf513309U,
  0x3b98a4393c4ea320U, 0x3f00f39abf950812U, 0xbd8e31fe3d8e94a2U, 0x3dd73fcabdef32a4U,
  0x3d019af33d9dff50U, 0xbdf1aa05bdf76b5bU, 0xbdafea1bbdbae001U, 0xbde7fbfbbd16dc64U,
  0x3c5b1d07bc97dcacU, 0xbd8ccfc83d117c40U, 0xbda1ed7a3b1bca7dU, 0xbc0a293bbde6b915U,
  0x3d36ebbbbd08c6c5U, 0x3d83d5c43d8a8ceeU, 0xbdbbcc6ebd03e34cU, 0x3dd60a133c4ad9b8U,
  0x3c9ab1743dc923edU, 0x3df2fbe53dd3f1f9U, 0x3d8dd1853de9018fU, 0xbd7bc057bdf37408U,
  0xbd9b6f043dc87dedU, 0x3df23f55bdbd8533U, 0x3d197acebd4bdfb8U, 0xbd32b70ebdba7051U,
  0x3cf352d43cf8b0a4U, 0x3d5173363dbf9025U, 0xbd54d6aebdb17635U, 0x3d858a7f3bb80f10U,
  0xbdb8e052bdcd7611U, 0x3d1153c23cded4bcU, 0x3c9b2a0c3d38909eU, 0x3c2ef1383cdd185cU,
  0x3d2a3952bde6457cU, 0xbd6fa8f83d62789aU, 0x3d57d3e63df020ffU, 0x3ba7e020bd4d0782U,
  0x3b1f69e03d7257f6U, 0xbdcea24bbd3b6566U, 0xbd9a13f3bc9bfd9cU, 0x3c8f3cd4bde3232fU,
  0xbca89208bdb1bed1U, 0xbd189cf23d9ff579U, 0x3dd95ad3bc595f58U, 0x3d7d4e723c916c44U,
  0xbafc42c03d7b538aU, 0xbb605a20bdcde7b4U, 0xbdd9c0223ca61404U, 0xbd7be5b93c9f5024U,
  0x3d3bc0f6bd0f2092U, 0x3db9d5493db76685U, 0x3d6fbcfe3ddbfd05U, 0x3d40f3aa3dcd1217U,
  0xbde35b9a3d1b5786U, 0xbdac904b3b2f7f40U, 0xbd4250a4bd7733bdU, 0x3da054d3bdb57114U,
  0xbd840367bdd1d63cU, 0xbd7328cbbde0c10dU, 0x3d6471eabda4b7aeU, 0xbd81c3183d944ea5U,
  0x3d29f6be3d6e085eU, 0xbd83bfb63de799edU, 0xbd91162e3d242452U, 0xbdd98322bc43b838U,
  0x3c994c04bd847db4U, 0x3c0d1b883dd8ddcdU, 0x3d2dab123d2ef8b6U, 0x3dd8db113d352672U,
  0x3dc3b87d3d2a2902U, 0xbd4831acbdd734e2U, 0x3ca0aacc3df2f159U, 0x3da3b2673d36d512U,
  0x3ddff64f3d24f376U, 0xbdb834ca3d974fbbU, 0x399fba003d53675aU, 0x3d11a8063c06a498U,
  0xbd2be250bdefa85fU, 0xbcecb99c3cf874dcU, 0x3db7747b3d0538c6U, 0xbd9dff003d978aa1U,
  0xbd92fb97bd7893adU, 0xbd569296bd2feaf6U, 0x3d9f85093db8f281U, 0xbd10c40abdb43914U,
  0xbbf787b0bd0a2f46U, 0x3c78bb18bd684bdaU, 0x3ddc5091bd87680dU, 0x39754a00bdddbe7dU,
  0xbcbc25a0bcb86244U, 0xbd63b63a3dbfc5e9U, 0x3c491b883d608ac2U, 0xbda57579bdad4626U,
  0xbd70b29b3d851aedU, 0xbcbbd4083d828e95U, 0xbd3a9be5bdf26b05U, 0xbc9eb7cc3df2e9d1U,
  0x3dbad6863d848435U, 0xbc9b817cbdaab8c6U, 0xbca61db73da01b17U, 0xbdbc3de2bd31b2f0U,
  0xbcd1ee9ebd716885U, 0x3da199623d9e7ff5U, 0xbd0d2254bd5d8129U, 0xbc44e9f8bd99685cU,
  0x3de48833bd3c81fcU, 0x3c9a074c3d6cd61eU, 0x3dc497a7bd42e8eaU, 0xbce7cc683c3112b8U,
  0xbd51db1cbd13c2ceU, 0xbd29f3fe3d27d65aU, 0x3db50c61bd27f730U, 0xbd2b2b063d23c922U,
  0xbd58b4003dd038f5U, 0x3d88e2533bd9e7b0U, 0xbdbcbfd6bdacfb6eU, 0xbb2805e0bd03154cU,
  0x3d4c06923d00ba76U, 0x3dcd4d193dc70643U, 0x3cf3f534bda650c7U, 0xbdb32d4e3df123bdU,
  0xbcf79c00bdea531fU, 0xbdd142353d8719e9U, 0x3dd7f62bbda50d2fU, 0xbddf0218bdb6d505U,
  0xbc33c1c03c33a3f8U, 0x3de3f6093d8d6665U, 0x3d6613c2bdbd3272U, 0x3d4504f2bd0cb39eU,
  0x3d81962bbd8333e6U, 0x3d674fce3de92defU, 0xbd33e04ebce53f18U, 0x3d9b5abdbaa652c0U,
  0x3d57b97abded1af4U, 0x3de2fd85bda56cb6U, 0x3d53f586bd864329U, 0xbddc829ebd49e984U,
  0x3d9392d1bdab59f4U, 0x3dae27313dbfdd79U, 0x3dc7b6793dc59417U, 0x3d2b1a42bdc1afbbU,
  0x3d0441563db4df8bU, 0x3db71bafbdd6f0c1U, 0xbcbf8bb0bb41bbc0U, 0x3b8d1d103c81bf4cU,
  0xbd812f683ce2d9a4U, 0x3d7c496ebda6c8acU, 0x3deed0f53d8c1a59U, 0xbd7b4ed3bd4e42d8U,
  0xbc4ae9d8bd2081a2U, 0x3df367c73d0ae002U, 0xbdc0d254bd5d7e20U, 0x3d9d8dcb3d47a5b6U,
  0xbd8cfcfe3d8f6735U, 0xbdc3935ebd75bfc9U, 0x3c4547683d10535aU, 0x3d1e6cb6bdaa1eaeU,
  0x3dc081893b27c640U, 0x3c7b27c8bdf24221U, 0xbd3c27003d5adb4eU, 0x3de6a6453da556fdU,
  0x3da584873d71979eU, 0xbdace7c4bce14708U, 0xbddce78e3df12797U, 0x3c90fc44bdf12c35U,
  0x3be46210bd3cea6aU, 0x3b8ccfe0bdd052f4U, 0xbd0cfdd8bd91207cU, 0x3de6f2773decc0a3U,
  0x3d12501abc896b48U, 0x3b83fce0bb889290U, 0x3dccda27bd13192cU, 0x3d48e016bd5bfc92U,
  0xbc865f64bcddfe50U, 0xbd5926ecbdbbd64aU, 0x3dce70093d3f0beaU, 0x3b2004c03cbeb164U,
  0x3dbdcbc33de5bd6bU, 0x3da2d2afbd479cf4U, 0xbd5f5fdc3ccb34e4U, 0x3d8f9799bcb71d16U,
  0xbd619eb53d0064fcU, 0xbaf84ce03d256331U, 0xbdac5b0a3bc25a1aU, 0x3cdd26cc3d756dffU,
  0x3a35e080bd30e7c1U, 0x3da1e2cbbcd2b30cU, 0xbded66ac3dac390eU, 0x3db63685bd81382eU,
  0xbd81c4c43b036d9aU, 0xbd31532e3d5c02e3U, 0xbd8a537cbd973c7dU, 0x3d047431bd2c7d50U,
  0xbdb49d31be0fd842U, 0x3ca3261ebd3d8db0U, 0xbda738cdbd021c3eU, 0xbd86867f3d8be193U,
  0x3dafa6c539afd900U, 0x3cb3beb4bdd941ebU, 0xbcce42743dd03b27U, 0xbdec42e7bd3a94f4U,
  0xbca6ba843d303316U, 0x3cc8994c3da1f11bU, 0x3cc321943df25f2fU, 0x3d8a541d3cfa13dcU,
  0xbd87b70e3dace241U, 0xbdcf0b063d920723U, 0xbd24abfc3bef6b50U, 0xbd7ca1bbbd908116U,
  0xbcc1a3e0bd9ced28U, 0xbd0b665c3d31356aU, 0x3d46e4723d1a203aU, 0x3d0d2102bd323e36U,
  0x3dd97ddb3db39a89U, 0xbde7be303d95f4e5U, 0x3da3ddb3bd1051ceU, 0xbccb1470bd25b8e8U,
  0xbd9c8e4a3b8d6fc0U, 0xbcc668ccbcabe450U, 0xbc5cf2a83dce9895U, 0xbd1a4d24bd0a0e9cU,
  0xbd243b36bd953bcfU, 0xbc78af20bd94e9b2U, 0x3dc5a1c33dad5595U, 0xbcf1dc9c3d927c45U,
  0x3ccc3e3cbdc8874bU, 0xbdf221ea3cc2007cU, 0x3d8e3515bba31f20U, 0xbcd719443daa5c11U,
  0x3dca0c67bde152dbU, 0x3d79704a3cc00e34U, 0x3d89b9553d8a4e0dU, 0x3c598558bda528c8U,
  0xbda1ca513d0bd91aU, 0x3da921d93d69294eU, 0x3debc3313dc539c7U, 0x3d106f3a3da08e55U,
  0xbd6e253cbddf4c01U, 0x3dd00301bd6d1c5fU, 0xbdd58583bc81db04U, 0x3d743a7e3dd14965U,
  0x3d02df6e3db0fc37U, 0xbde6b622bdec0805U, 0xbdcf03743c5b8eb8U, 0xbd9521dcbd8eb78eU,
  0xbd189abc3d1fd90aU, 0x3c7534c8bd9b7f22U, 0x3ca1df2cbce62214U, 0x3daf74fdbd982fcaU,
  0xbdf0cc563d3eea8aU, 0xbca7b8343de6dfefU, 0xbd48b9c03daf4e03U, 0x3d2028ca3dcfb987U,
  0xbdc88393bb9e2f90U, 0x3cf3e73c3d95a46dU, 0xbdc05452bd1e8c14U, 0xbddfbbb7bd473632U,
  0x3de43b373d1aeaaaU, 0xbd33ced23db07173U, 0xbdeb35b83dcd43a5U, 0xbdd3c3983d6e57a6U,
  0xbda65232bd803803U, 0xbb7b00e0bd8d7a7aU, 0xbd1d3ada3d7d502eU, 0x3d966d4b3cffcdccU,
  0x3c5c4278bde96558U, 0x3de271b13d3bd9deU, 0x3de84e51bd43fe90U, 0x3d8f341d3de4d05dU,
  0x3d4a1cc2bb8658b0U, 0xbdf16046bc8df48cU, 0xbddfcbcfbdd0484bU, 0xbe2558debd3691a3U,
  0xbd176668bd38eaa2U, 0x3d95a7ecbd3bc9d0U, 0x3a174a083c259bdfU, 0x3d3b1e6bbde15a79U,
  0xbda5daf0bdbacd0dU, 0xbd6f3e9fbd11ce87U, 0x3d9f3dab3dab987fU, 0x3d047e39bd102bccU,
  0x3ddbabb73d853781U, 0xbdd06a7b3dd93e51U, 0xbbb7dd693d14bd8fU, 0x3d51c15abc63701aU,
  0x3d9c97b7bd8a1e50U, 0xbd686102ba8e7000U, 0x3de767cd3d2e10a2U, 0xbb4896e03d8c3b87U,
  0x3d8810433dd03a8bU, 0xbd4169d63df498efU, 0x3d96f0ddbc883634U, 0xbda51d9a3d0e62daU,
  0xbd49edaabdb80982U, 0x38b638003d0bb2d2U, 0xbdd6fa1c3d71e902U, 0x3d8ab9a3bc0a1560U,
  0xbd5816c43d93b093U, 0x3d4cf5aabc3a4940U, 0x3deb2ef13dad4891U, 0x3d3a481abd58558cU,
  0xbac7d7803d2afc62U, 0x3cbc01c43da7358fU, 0xbd20b3c43de45dd5U, 0xbd0361dabd440a0aU,
  0xbd269da6bd5c367cU, 0x3dd31be1bcc90454U, 0x3db8c479bb169120U, 0xbddd3dc73d8bd4d1U,
  0x3cda12dcbc04f768U, 0xbd4eaceabd9e2990U, 0x3db81657bd1a964aU, 0xbd016184bd14792aU,
  0x3deead9dbd0f5b4aU, 0xbd8c74da3d2e0242U, 0x3ca528243d9135e5U, 0xbb50be403c146958U,
  0x3dcbe397bdc439ffU, 0x3c10d8c83cc8561cU, 0x3d52c90a3d7dbf1eU, 0xbd4eb32a3d628cfaU,
  0xbdba4a343c67fc08U, 0x3d9de317bd33bfc4U, 0x3d1bf68e3dedd067U, 0xbc89aec0bc602468U,
  0xbdb264cabc1d3520U, 0xbcf0747c3db4288fU, 0xbcb64280bdc69f1eU, 0x3c9b9e843cd9ad9cU,
  0xbd9e35bebd996612U, 0x3c190bd83ca63f54U, 0xbc8ef4b43db066e7U, 0xbcc703283d05c29eU,
  0x3d06c4ba3ddb6d67U, 0xbc88f810bd74fbadU, 0xbde848483c9a985cU, 0xbdf0a097bd8ec012U,
  0x3cefd7143d52758eU, 0x3ba1e8603bb5d750U, 0xbced51c43dbee84dU, 0xbdb5986fbb394780U,
  0xbdcd0e9bbd9bafa2U, 0xbdbbae34bbd247b0U, 0xbd16a260bdc08188U, 0x3d601bce3d5c7ecaU,
  0x3ca7e61c3cfb3474U, 0x3bfbacd0bd50eadeU, 0xbdf2bec2bd20db7cU, 0xbdbdb57cbd62b92cU,
  0xbdad2a35bd0dae5aU, 0x3aeec3003cf5b224U, 0xbdd78b353afc0680U, 0xbc43c7c03d3ecf96U,
  0x3ca0749cbda796c3U, 0x3ddbb459bd4fa104U, 0x3cacf344bdc21f3bU, 0x3ca14ce4bd103142U,
  0xbde7ea5abdcf1611U, 0x3cf186dcbd503b86U, 0x3df274d9bd16bd82U, 0xbc794176bccdd7feU,
  0xbd5621ca3d6f583aU, 0xbc3696b2bde53aeeU, 0xbcedeb883dde5a91U, 0x3b41cf603db62604U,
  0xbcacea40bc39cb8dU, 0xbda3f620bc58ed50U, 0xbdafd1193c048dd8U, 0x3dc2fbf8bd033e1eU,
  0xbd84177cbdd7a941U, 0xbcbdf17f3d9e4b05U, 0x3d7de6163c863f7cU, 0xbdac2794bd0209c6U,
  0xbdaa7fe0bd4cfc02U, 0xbddd72c7bdb2a7b5U, 0xbde461abbde69fc4U, 0xbd949974bd10077cU,
  0x3b1b63a0bdc476b6U, 0x3c87189c3d8985c3U, 0x3dd904453c52d958U, 0xbd93c4643de83d6fU,
  0xbddc38ccbdc66a68U, 0x3d30c83abd42f0d4U, 0x3c087938bd338fecU, 0x3daab56dbda9ade2U,
  0x3d50c88ebd722ab0U, 0x3da5e1c5bd42f7f8U, 0xbdd65b15bd98a15eU, 0x3d8096dd3dc0d915U,
  0x3d0d4cb23dcdde33U, 0x3d6a766a3de7ac37U, 0xbd9128143d97775bU, 0x3dba35adbde95cb9U,
  0x3d13b5febd21106eU, 0x3dd49a9bbce318c0U, 0xbdd811453c58ed38U, 0xbc7c7e50bdd39228U,
  0xbdda0018bc9f44c8U, 0xbdb859fabd3469d8U, 0x3df4089dbb31ce20U, 0xbdf10d403de0447bU,
  0xbca930c03cb0f85cU, 0xbddd87c3bd0cf66eU, 0x3c183bd83c86968cU, 0xbd48100e3cb7c6c4U,
  0xbddcba6cbca470d8U, 0xbd93f32abc85dce0U, 0x3d071e9a3ced75a4U, 0x3d5c616abdc202a2U,
  0x3c8276a4bd4b80e0U, 0xbdc03e453d87b989U, 0xbdd2eb56bd62660aU, 0x3de64ef53bd303d0U,
  0xbd65e3a8bdbf8cd7U, 0xbc302708bdf04b31U, 0xbdbeb4ff3ce1ccacU, 0xbdd3ae4e3d786ffeU,
  0xbdb8136e3dbd37cbU, 0x3d61d94e3dbbb555U, 0xbdd0b5bd3d64f642U, 0x3ceab08c3d8da963U,
  0x3c613f78bdbd4710U, 0x3ab7ccc0bd2accaaU, 0x3d9ed73b3d62c56aU, 0x3b7cc160bd9e4a13U,
  0xbdaa7947bcdcdc2cU, 0x3cc5c53cbc9e2a1cU, 0xbdd76c033dcf4747U, 0xbdea9478bd8a5c2aU,
  0x3d9713253cc04fe4U, 0x3d18dfbabd81226dU, 0x3d8a8d87bd2773aeU, 0xbda708ae3dbc4abbU,
  0xbcbc4640bdbb25b9U, 0x3d915e633cc52504U, 0x3d8c8f413df1187dU, 0xbd4e92a0bd18d554U,
  0xbdb51edd3dd5d763U, 0xbda82478bdb165fbU, 0x3ca7087cbdb03f48U, 0xbdb397dcbd73d94cU,
  0xbd3098b0bdeec278U, 0xbc587510b9ffc000U, 0xbcb99000bcf2aeacU, 0xbd84f930bcf8c690U,
  0xbc92785cbd0b959aU, 0x3d07e80ebd208b9cU, 0x3ddc7d0bbd37487eU, 0xbd8349e4bd7d789aU,
  0x3d293f82bd3e537eU, 0xbd76e102be7c35d4U, 0xbd7d36fd3da4ff2eU, 0xbd0ba71bbf626d38U,
  0x3d48a4ea3d41ab00U, 0xbdf4631fbd6a18afU, 0xbdb33c103b63aae9U, 0x3c8155e13da1b5e7U,
  0x3d7427063d57fd8cU, 0xbdb5c07abdc3b225U, 0x3ddf6f25bdc9f3c7U, 0x3c021bbdbdb84db7U,
  0x3debcc1cbd6f4dbaU, 0xbcb0a33fbdf34787U, 0xbda19514bdc99584U, 0xbc7f628b3d86944bU,
  0x3da16cab38a3a000U, 0x3d05544abd8685a1U, 0x3dbb412b3d81bbe1U, 0xbdb3a2ad3ddfd6e1U,
  0x3d9c07b5bdb3de46U, 0x3c99c1343d96c75fU, 0x3cce28c43dadff87U, 0x3d9aa48f3d8f8acbU,
  0xbd9fcf23bd30263eU, 0x3df0004f3cc63554U, 0x3d0f25f2bd064ab0U, 0x3ca50accbd6fa602U,
  0xbd8ec0ecbd0df360U, 0x3de7ebe73cc69374U, 0x3daadda5bd624026U, 0xbcb6e734bb154740U,
  0xbdda5b05bd857440U, 0xbd312aae3dac125dU, 0x3b7087403d15ad0eU, 0x3bab0bf03d7ede92U,
  0x3bd02cd03beefd50U, 0xbc633c08bda77e4aU, 0x3d9f79b9bc613588U, 0xbdbea5403dc122b9U,
  0x3dd4d06f3c947454U, 0x3deac33fbdd1195cU, 0xbbf9b4e03c99b6fcU, 0xbd6405aebca56c44U,
  0x3c7fbb583da0cc6bU, 0x3de6e897bd3ba44cU, 0x3dbe955dbd80576eU, 0x3dd2cec5bdc9fff0U,
  0x3d8a5895bb29a180U, 0x3d03db9ebd90c2d4U, 0xbd0d99a43d6983deU, 0xbdc4efb3bdd7ef66U,
  0x3a470f00bdd0b980U, 0xbcabd3a43d6a49b6U, 0x3d8eceff3d92da01U, 0x3ce654dcbd34461cU,
  0x3d6c7b763d7122deU, 0x3dc45d0bbc5032f0U, 0x3de895553c473e68U, 0xbdecbc4b3d92b983U,
  0x3d360f56bbec9fa0U, 0xbde6131a3d57a206U, 0x3c8b5cdcbd80941aU, 0xbde5d21dbd731e2fU,
  0xbc2fc858bd817b62U, 0xbcb38d64bd6e93d3U, 0x3d90a12bbcf04268U, 0xbd8c79a6bd89a704U,
  0x3cd96224bd8fb0e8U, 0xbcc539243be11630U, 0xbd7c3e683de836f3U, 0xbcab87343db4fa2bU,
  0xbce236fc3d2d4266U, 0xbdeba6a0bded4603U, 0x3dd11541bddff243U, 0xbddf0c60bdec6dcbU,
  0xbd614b30bdadc902U, 0x3de11673bd417778U, 0x3da806153de3e05dU, 0x3d6cff7abcede45cU,
  0x3ccfba84bde08c6eU, 0xbca70518bdc371b8U, 0x3d135fb2bdc0e6efU, 0xbdbe41503c8e611cU,
  0x3dba8051bd59fcc6U, 0xbb8cb5903c9481c4U, 0x3d9b03ebbd3a2370U, 0x3d6739eebdd9f894U,
  0x3b9302e0bdc54eeaU, 0xbd4b9f16bc9c9a10U, 0xbd772ea93dcfca8fU, 0x3dc96ae0bc5df6b8U,
  0xbda567a0bda5aa91U, 0x3d21c152bd8fc3b8U, 0x3c5fb8763d0798aaU, 0xbc509140bd384c0aU,
  0x3d46326abca6a18fU, 0xbd860e183dc6496aU, 0xbc5900903d55f109U, 0x3dd37226bb889b83U,
  0x3d75ba8e3db78132U, 0x3bbba4cd3d5b87d1U, 0x3c9660643dabceffU, 0xbda542953b295f20U,
  0xbdbedbe3bddfcfc7U, 0x3d89ada6bcbb1836U, 0xbd4c8b16bdca1684U, 0xbdd73e5b3de70399U,
  0x3ddf5a3f3dcd1467U, 0x3d269c0e3dc68e81U, 0x3dc8697dbd9c423aU, 0x3d937d7fbc672398U,
  0xbd6c41a5bdba8d8eU, 0xbdd30d0a3d21b27aU, 0xbd010f14bb8f7ee0U, 0xbce04e403d92b41dU,
  0xbd7bfcf8bd750a33U, 0xbc82cbe8bd904a2eU, 0x3d8770c7bba3b2e0U, 0x3de8f62dbbd94250U,
  0x3ccb39dcbd97c2e8U, 0xbd780eea3d463c2eU, 0xbddae51dbd0bba2cU, 0xbb8e9700bd12fa5eU,
  0x3d78a1463dc1d12bU, 0xbd83f15e3c945f94U, 0xbdda7fbebde09f2aU, 0xbc7659a0bc8fab74U,
  0x3d43c8aa3c7fc788U, 0xbde6c25e3d2b915eU, 0xbd8bb95ebd9650b3U, 0xbcf9419cbcd21bfcU,
  0xbd89ca09bc6ae490U, 0xbcf3eba4bdd85161U, 0x3da627efbd7de2dcU, 0xbdb84700bb67fc80U,
  0xbd0a21bc3ccb4ddcU, 0x3dcbe4c93d70c4b6U, 0x3d584596bc7920e8U, 0x3d665002bdc58c56U,
  0x3ce53aacbdb04132U, 0x3c3b16b83d30855aU, 0x3c333fb83da38c59U, 0xbce01888bd6f39eeU,
  0xbd223c7e3d915f89U, 0xbdf0481d3d2a07eeU, 0xbdb4e750bd2a9552U, 0x3d915ec5bcf21c80U,
  0x3d4fc49a3cbec12cU, 0x3c35d228bd99aad4U, 0x3d72070abdc03f3eU, 0x3d860db1bd2f6df0U,
  0x3dca7cdfbd9ebeafU, 0xbd76d8efbdba517bU, 0x3cfa2e143db8fd59U, 0xbdc47b58bcdf9b08U,
  0x3d7fd9363ddb4da3U, 0xbdcb1dcfbdb83b78U, 0xbd9c6c35bd0be370U, 0x3c4ec368bdaa7c89U,
  0x3d4a9c6a3bbf6310U, 0x3d881b75bdb0846eU, 0xbdefb21c3c3cfed8U, 0xbdc32541bdd51e0cU,
  0x3d9b62a53def1965U, 0xbd8128ca3d8acd0fU, 0x3de62c073d382732U, 0x3d5e030abdf03fc3U,
  0x3d75eaf63c169ba8U, 0xbdc9e0e8bda93fd0U, 0xbc012180bd0b6498U, 0x3dc24a193d70735aU,
  0x3d7655da3d068f82U, 0xbd4f1ebcbc683bc0U, 0x3bc87810bca28f98U, 0xbdce9982bdccb9f0U,
  0xbd9814a9bc0018c8U, 0x3c03b9783d89642dU, 0x3daa1c8bbbe58210U, 0xbcab4b643be20c30U,
  0x3d8297d9ba29a200U, 0xbdff4f04bd83b3bfU, 0xbdde297fbd922e21U, 0xbdec7ca0bcc2694bU,
  0x3db837e7bd5bb0caU, 0xbdeb70cfbc807f91U, 0xbd3bac883da62dc9U, 0x3dda0cd6bd87e130U,
  0x3dd9a8dfbc467314U, 0x3d7588d8bd53fdaaU, 0xbdc299563dab3c84U, 0xbcdbaeed3d89604aU,
  0x3d1c5f17bc7b7502U, 0x3d3651463cfc2584U, 0x3d65d78f3d847d13U, 0xbd6f6f2a3d96ff51U,
  0xbdec1aba3ded81e1U, 0xbdc3d3903d9ed869U, 0xbd9613a73d83c61bU, 0xbd5644f4bdc59c06U,
  0xbd49ec52bd621276U, 0x3c9b57c4bdd7dc61U, 0x3d38a0eebd857c05U, 0x3d72f40e3dcea47dU,
  0x3d20f686bc8fe488U, 0x3cc3c3643d655a16U, 0xbdf2c282bc8631a0U, 0xbda2c5183d5218f6U,
  0xba55f600bc95e484U, 0x3c94fcd4bdb963c8U, 0x3d11773a3dc7cf7fU, 0xbdca36e4bdae3bd4U,
  0x3daef1fb3da399f9U, 0xbbdf5b403d360616U, 0xbde1a999bd131e04U, 0x3c022df8bd8f7cf6U,
  0xbd0f251c3dc0b523U, 0x3da91d5dbd59b74eU, 0x3d014836bd8d00b6U, 0xbde5feb23d90c3fdU,
  0x3d178f16bdc797b2U, 0xbda0b2f63d15ddc2U, 0x3defe14bbdb1f816U, 0x3ddf15fbbcf2fafcU,
  0xbd5d10da3d586b16U, 0xbd4e8e803deb79e5U, 0xbbbd6120bdc918aaU, 0x3dba2c97bccf4994U,
  0x3d1a80a6bddf50f7U, 0x3dda0d333dbf3383U, 0xbd1a6ac83db6d2b7U, 0x3d882ad7bb214ea0U,
  0xbdc633bebd7dd2b9U, 0x3bfa45103dcbe3efU, 0x3c10b2c8bdd09b3cU, 0xbd2ed8de3c2cbef8U,
  0x3d1b43f6bd6ed7a0U, 0x3d9f27533d7eed4eU, 0xbdf19d30bd91f02cU, 0x3dd1c7dd3d9d1733U,
  0xbda707183da8232fU, 0xbd3087003de69543U, 0xbd171ce43cd6b24cU, 0xbc0e80a8bd13da4aU,
  0xbaa28740bde13fbbU, 0xbdb66f09bb7d09a0U, 0xbdcb9674bd4595f4U, 0x3d680fe23dd95e87U,
  0xbd7d4cbd3d929b5bU, 0x3d1ab652bbba9c90U, 0x3def8201bddd89e9U, 0x3d8230093d7578caU,
  0xbd67246c3cf9dfccU, 0xbc4649203c3a2b08U, 0x3daec693bd561910U, 0xbcd3afe8bd1ef7b6U,
  0x3daee8b73c5fff18U, 0xbc8f4dfc3d25c176U, 0xbdb109f33dd7a463U, 0xbd324af2bdd2aeb5U,
  0x3db65b2fbd9619c0U, 0xbca2380cbdedaf67U, 0xbd7b512fbda56cecU, 0x3dc4a64dbd6dee13U,
  0x3db238cf3d6f5e9eU, 0x3db06975bd262ddcU, 0xbdcff2a23b581cc0U, 0xbd4410503dbd9b31U,
  0xbd496430bde296e5U, 0xbd0eee38bd422dccU, 0xbc7a2200bd3862a8U, 0xbee18a5bbda5d68fU,
  0xbf175de7bd272eb6U, 0x3e2a8e113c3bf8ffU, 0x3d704e28bc6b3c14U, 0xbc68f244bef562beU,
  0xbc2c22ddbe4d8605U, 0xbeb7659cbdbf5b34U, 0xbdc50d0ebd349a13U, 0xbf479a0dbe28761cU,
  0xbd688a423d2a0250U, 0xbf3bab67bd4d8435U, 0x3d814040bdb1ac8bU, 0xbe2e65fbbd3751c1U,
  0xbf05c541be55bbf9U, 0x3d5a2edfbba677e1U, 0x3c077bf83ddfe867U, 0x3def0c55bdbf66c9U,
  0xbda956b8bd33ecb4U, 0x3d0d399abd742e28U, 0x3df232333cd98b54U, 0xbdd233e2bdd4b62fU,
  0x3c6ea5f83de89555U, 0x3c55e8983dd3a019U, 0xbd943e513d303ef6U, 0x3c7a97883da623b1U,
  0xbd98d9c8bdd10398U, 0x3cf03fa4baf17940U, 0x3de8992fbdcd31ddU, 0x3d550a763d3caffeU,
  0x3cf8ac04bd2c67c2U, 0x3d04345e3dda95d3U, 0xbc96319cbde55386U, 0xbdc0232b3da71117U,
  0x3cb0fe1c3c226228U, 0x3c22b518bd37adcaU, 0xbd9147f23d3c263aU, 0x3d5f74febde32a50U,
  0xbdb4d45f3cc5a9fcU, 0x3bcd1bd03d2237f2U, 0x3d85127fbd7e2539U, 0x3ddf19b7bdb24bf2U,
  0xbd3be9ec3d900975U, 0x3d64baaabd4ea910U, 0x3dc7cd333c8117e4U, 0xbdf09c3e3cfae7d4U,
  0xbdc0b88bbdf44510U, 0x3d7f75b6bd5f5d3cU, 0x3d02038e3d82e4f3U, 0x3d2e1fb23cdf3264U,
  0x3d495b663dc9de57U, 0x3c6d63283d54cbfaU, 0xbdd255ad3c242228U, 0xbda4793ebd6392baU,
  0xbdd857d5bd17dfc6U, 0x3ce1a10c3da965b5U, 0xbdc27ae43d8591b3U, 0xbb94e5c0bd85e766U,
  0x3dbbc21b3c437da8U, 0x3dc575c3bd5e0592U, 0xbde6cb3ebd646d48U, 0xbd425fa43da5ad5dU,
  0xbcba488cbdd18e6bU, 0xbc534c78bdcbd2a6U, 0xbcafd4143d81abd5U, 0xbd8485d9bd8f7c9eU,
  0xbda250e23d4219aaU, 0x3d8944693debf987U, 0x3d0c8ac63da9a18dU, 0x3d69ace6bbc67db0U,
  0xbb0be8403ddf0fe3U, 0xbddaceea3ad564c0U, 0x3d43a912bdaecc68U, 0x3dec0727bde5db83U,
  0x3d33784abdd24b8cU, 0x3d15e6223c4ee8b8U, 0xbc18eb503dc7007fU, 0x3ced2b1c3d398d76U,
  0xbd2e5e16bd162910U, 0x3c9790f4bdedc045U, 0xbdee2d7c3d8f26c5U, 0x3bd6afb0bdcadaa3U,
  0x3d777d123dcc995bU, 0x3dcf61213dd90da7U, 0x3d05cdb2bd96c488U, 0x3d52735abdd0cd08U,
  0x3df120e53dcc3fc9U, 0xbd6ae57abdf1f3a9U, 0xbc3547603b65d460U, 0x3d6590dabd55ab94U,
  0x3cd23b2c3b31e4a0U, 0xbeae359a3d82cf7dU, 0xbf36ef43be508776U, 0x3c7396403ddb4f7cU,
  0xbe4a4fb9bd4bb3c9U, 0xbd820f2cbec7b15cU, 0x3d4bf063be80e196U, 0xbebd5bebbd6509b7U,
  0xbe2b8127be0cd82eU, 0xbf095246bcc8a507U, 0xbd8dcfe0bd9350fbU, 0xbf6b9a1abc75ce1eU,
  0xbe1bffdcbdaa10efU, 0x3dbcca8bbe1c1f3dU, 0xbeb75953bd1252d5U, 0xbd932361bda6b14fU,
  0xbb83c5e0bdc23efeU, 0x3d7ece32bcd1d350U, 0x3dace7d13de5fd37U, 0x3da3eca7bd8083ddU,
  0xbcd489ccbd493e7aU, 0x3d1eef9ebd356da8U, 0x3d942d2fbde1f148U, 0x3dab8cf13ddff739U,
  0x3dd780333d9f4645U, 0x3d129cdebc89bf6cU, 0x3d7786b2bcd221b8U, 0x3de2066f3dc4de8dU,
  0xbc1235883d93bc47U, 0xbd08ae9e3d815c7fU, 0xbc2a01403d3600eaU, 0xbdcaa4cb3daf171fU,
  0xbd01cea43da3f1efU, 0xbcae9120bdc6bba0U, 0x3db9bfb9bcea5edcU, 0xbcdd9000bda77d74U,
  0x3d4144323d956093U, 0x3de968d33d8d56c5U, 0xbd079706bdcdab96U, 0x3cd8f58c3d8dc807U,
  0xbd95478abd9fd41cU, 0xbd78d065bdbc8f0aU, 0xbcb57af4bdaf5139U, 0x3db2c37bbd3e950eU,
  0xbd8d5336bd87667fU, 0x3df10cc9bd694152U, 0x3d8960a53dea5ab5U, 0x3c00d4e83dd2f7edU,
  0xbdf2a573bdd3157fU, 0xbdb4284abd885c26U, 0xbd59d80ebdc637b0U, 0xbd875c6e3d9bf343U,
  0xbd93134dbddd20d6U, 0xbdf3d67d3d0f918eU, 0x3d2d76febd9e931eU, 0x3dc2e4c13c663f88U,
  0x3b18ee60bcb3e1a8U, 0x3dbb786b3d528472U, 0x3a35b800bdf3dc92U, 0x3baabd80bdc97293U,
  0x3b483de0bd7e23b3U, 0x3d93a29f3d87fff7U, 0x3d88549d3de13e4fU, 0xbda7ba0dbce62c00U,
  0x3d8f3aa7bd93c313U, 0x3dda5165bd5f903cU, 0x3c7fcc28bcea9c6cU, 0x3de303453d24bebeU,
  0xbd2bbcb23cb37e54U, 0x3dd2f96d3dee70b7U, 0xbdd7efe0bdb5164aU, 0x3b1827803d860939U,
  0x3d1c63723c693dc8U, 0x3db98ecb3d92749bU, 0xbd7c623cbd089a2eU, 0xbde40b22bdecde8dU,
  0xbca14f903d433ea2U, 0x3da34c83bd4834fcU, 0x3dd36293bd7547aaU, 0x3b4cfd40bcad60e0U,
  0x3cfd09fcbda54054U, 0x3d82a13dbdb7ac5aU, 0x3dcde0afbd33d1d8U, 0x3df077853d8904c7U,
  0x3c8d44843dcc92f1U, 0xbd9372b2bbb007b0U, 0xbc82d604bdc4a9bcU, 0xbd26024c3d24f4faU,
  0xbd875e29ba8e1240U, 0xbdde5f24bd26d26aU, 0x3df16675bd83be33U, 0xbdcd30a4bda4e6e5U,
  0x3ba51b81bca2bf38U, 0xbdd31c84bca662c8U, 0x3dba13503da74f09U, 0xbd1d9ac43d1e5ecbU,
  0x3d3c35babd87f35cU, 0x3d18ed5c3db5ab3dU, 0x3d9739a3bdbde6fcU, 0xbd37cff8bd24d551U,
  0xbdcd6806bd868090U, 0xbd94d8d3bd407fe0U, 0x3d4b90c6bd379c7cU, 0xbd59e89cbde3f146U,
  0x3d8470fa3dd305e5U, 0xbde5f288bdc6eabcU, 0xbcfb64acbd75f22aU, 0xbde7cc2c3d8bfd23U,
  0xbc13df48bdc43f4cU, 0x3d1cbaf6bda89b0eU, 0x3dc98a41bdad9c71U, 0x3d2d9cca3d8b40b9U,
  0xbdabf696bde24c3dU, 0xbd25dbfebd579d2eU, 0xbdc893bdbdcf56baU, 0xbda7166c3d1870caU,
  0x3dcb72e53cb4ad64U, 0x3b91e2d03cc4b924U, 0xbd53a0e839ce6300U, 0x3d92f905bd5ff6e0U,
  0xbdc0f8533c8bc3a4U, 0x3d4d4e723d9f19edU, 0xbd394286bd8944aeU, 0xbca5a90cbda11eceU,
  0x3ccef32cbda39c8cU, 0x3cea05fcbd152786U, 0xbdbd0c10bd3dadceU, 0x3db3668fbdf13903U,
  0x3d4c49fa3cb60eecU, 0xbdcab7833d0f2d46U, 0xbd3ab16ebd7a420cU, 0x3dcc007fbc4233a8U,
  0x3d7a9c22bc853cc8U, 0x3c8ef1e4bca287e0U, 0x3d7b36423d8e07e7U, 0x3d87df193dc052d1U,
  0xbdc93d12bd3971d2U, 0x3dbf20d13da99a69U, 0xbc8cbad0bd580ae8U, 0x3c507b68bcb76b08U,
  0x3c37a4c8bc146788U, 0xbb13e2a03dde687fU, 0x3dd894c93d47ce0eU, 0x3cfda9f43d30d67aU,
  0x3d8a47bbbd93e560U, 0x3dee49593d4849b2U, 0xbd9b84bc3c987d5cU, 0xbca8ca083daddc91U,
  0xbd60b616bdee5b0dU, 0xbca6bb983ce7b78cU, 0xbbbee8303cbb630cU, 0xbd24bf9e3dd2e56bU,
  0x3d1413ee3d817435U, 0xbcfdae743dbe9b29U, 0xbc0898b0bc191c18U, 0x3de7d3b73d9407d1U,
  0xbdaae7fcbdc52ebcU, 0x3cb9443c3db3173dU, 0xbaf4d4c03da2ce5fU, 0xbdbe19bcbdbd4044U,
  0xbd5f54bebdacc326U, 0x3cd0faccbda140f4U, 0xbd272902bd876536U, 0x3dcff0133db5dda7U,
  0x3c856a9c3d50c896U, 0x3dccc0973dd35b73U, 0xbdef335fbda12742U, 0xbd924edebc8c4284U,
  0x3df00c573d200a2aU, 0xbd0912543cec72ecU, 0x3a64b9003b9e1c70U, 0xbdcb419fbcf502bcU,
  0x3dcebf033ddb888bU, 0x3db074b1bd93df44U, 0xbd33a66c3d16df5eU, 0x3d0ee426bc1a3a18U,
  0x3dc3e27d3d87ac07U, 0xbdd73158bd6d25c1U, 0xbc8ddad0bcc8b49cU, 0xbc689d683c19d838U,
  0xbd2372063d8615d5U, 0xbcf38140bfd5aff7U, 0xbe04da293bf39befU, 0xbd56e5febf149613U,
  0xbdf70267be09e3a7U, 0xbd643f3cbc96715eU, 0x3d5fcebfbdd1d575U, 0xbcb12bf63d6e34c4U,
  0x3ce5bde13d3995c0U, 0xbc9716cf3d013eb6U, 0x3d9d25f73d722942U, 0x3bae2b01bdd15dbbU,
  0xbdc136223cd8bfc7U, 0xbe0838943cd83b00U, 0xbda082483b7edc45U, 0xbd9f14edbc84a964U,
  0x3d8663e5bd89c5fcU, 0xbdd055f43d836693U, 0xbcc8cbbc3d731e72U, 0xbd302ffc3d3bad52U,
  0x3dc3dd753d84a50bU, 0x3df392f1bd94f8ceU, 0xbdcd6e76bcc838d8U, 0xbd852cb03c82874cU,
  0xbd0505423cda0494U, 0xbd40b8803d689b3eU, 0xbcbb7af0bd97bcc0U, 0xbd9c7a6ebcb21bb4U,
  0xbcc564e43c904f44U, 0x3decd38d3d325d7eU, 0xbbc24400bde3f13aU, 0x3dd792bdbcc7caf0U,
  0x3dbfaecd3b98b8a0U, 0x3d202aca3d96d143U, 0xbbc2ea603d050e52U, 0x3b9d8fa0bc1cabf0U,
  0x3deaaad1bd9abbd2U, 0x3d69be7ebdb12720U, 0xbdded0823d7fd716U, 0xbdbdab40bdba939bU,
  0x3da18731bdeed3c5U, 0x3d41e366bd684ab0U, 0x3d909d6bbd0b6f7aU, 0x3d9f423bbd8c27daU,
  0x3c9349b43d884c1dU, 0x3ded16f33d54da52U, 0xbd4d72283db8d0a5U, 0xbcbe95a83dec7f51U,
  0xbd80ecbabd149576U, 0xbddfb5aebdac5807U, 0xbdca88cbbdd00c50U, 0x3db1ffd7bdd16c06U,
  0xbd123d943d85b80dU, 0xbd212400bde53a09U, 0x3d6113c23cc32124U, 0x3c5134c8bc077e20U,
  0xbd747624bd5841faU, 0x3d0d91023cb43294U, 0x3c51f498bc324458U, 0x3dc483293de67d39U,
  0xbb9b59d03ddf7d8fU, 0x3c820c7cbd7f2a4bU, 0xbd834f393dbefd97U, 0x3d9968313da0a1efU,
  0x3ddf89473d9adbedU, 0xbdeb90d43d80c3bfU, 0xbcde4c3c3decf00bU, 0x3c745ac83c3a7d78U,
  0xbd9825d8bb60fc20U, 0x3de7ce03bc5b4608U, 0x3df1ea2dbd27e1bcU, 0xbd8f94993db1ae9fU,
  0x3ba4ebc0bdb48f92U, 0x3dcd94fb3db942c3U, 0x3d0d0dd63d25ff86U, 0x3dea7dab3de28b61U,
  0xbce542fc3de8bdc9U, 0x3dbdd629bde186baU, 0x3b95d6f0bcb074b4U, 0x3d81e69b3c24b028U,
  0xbdb62e083d9a2e2bU, 0x3dcc210dbd6ba043U, 0x3dac13733ded2597U, 0x3df06de93da31dd7U,
  0xbdbcd31c3caca9e4U, 0x3d91b1973b43f240U, 0x3db3e3c53b180d40U, 0xbd2e63d23dc03f73U,
  0xbcb70bf4bd6a6f54U, 0x3c94d07cbdefdf47U, 0xbdecde7a3bd5fc70U, 0xbd893c0dbdd27d25U,
  0x3d9e50683ba01495U, 0x3f040b2dbfc13363U, 0xbddfa3393b4cb406U, 0x3bdb22973d08052bU,
  0xbd304a263cf5050aU, 0x3d9483bcbdaeeaf6U, 0x3d1c3ce4bdfec7c3U, 0xbc5b0f563db2cd90U,
  0x3dda537abaaffc68U, 0x3d8ded7fbd8f312bU, 0x3c2f5877bdbffecdU, 0x3d3bf23abc365fc8U,
  0xbd93c6e43dd601ceU, 0x3d2583aebd81f2b7U, 0x3d6b458a3d2bdc3eU, 0x3d5ddfbe3d7a47feU,
  0x3de41ae13cc360ecU, 0x3d46b2a23ddcc4d5U, 0xbdd320603d24d576U, 0x3de39d07bdf4a7ecU,
  0x3da958eb3ad95740U, 0x3d950ef53ce3ce44U, 0xbd248342bdacf0a0U, 0xbd9f642e3d284402U,
  0xbda4cd26bd306306U, 0xbd424b903dbe5f17U, 0xbda9cc3d3c664918U, 0x3ce9328cbbcb8940U,
  0xbdc947c13d562906U, 0xbdbe0626bbffa1a0U, 0xbc3d1420bde020ffU, 0x3d0607aabdb6c0ddU,
  0x3da50621bc0f9e90U, 0x3d94c4233d705d9aU, 0xbc5c0208bdc88e04U, 0x3b9ce4703da2b285U,
  0x3da31a793d379646U, 0x3d887b853dc3a767U, 0x3ccccb243d395df2U, 0x3cf9dc44bd87886dU,
  0x3c7e11983db5b503U, 0xbd8e1ec6bdb04aa0U, 0x3d1f3c7e3db809d9U, 0xbc9af330bcb3e12cU,
  0x3d4a64263c96c27cU, 0x3cc4548c3d02511aU, 0xbd9ce8bc3adc2480U, 0xbdbb3e2a3dbaf955U,
  0x3d679fcebd110762U, 0xbb56a8403d9f49e9U, 0x3d9ba4293db4e77bU, 0x3d30a6aabc62aff0U,
  0xbc97c390bddce651U, 0x3cdb635cbad7e900U, 0x3c20bab8bd7e71b0U, 0xbd5f5d9e3c18b658U,
  0xbdc5938d3defbeb9U, 0xbdbc8c063d32fe62U, 0x3caadd5cbd8247a9U, 0xbd8b4bfabdd5e91aU,
  0x3dbdc119bde99ebfU, 0x3dcf6ca93dd15413U, 0x3d58e9d63de386c7U, 0xbc4acb783d34645aU,
  0xbd6aabbfbda461ceU, 0xbddcb6d23b8ab4d0U, 0x3de6a5f73d2e032eU, 0xbbc0ddb03dbbc00bU,
  0x3daca6e93cbe2eccU, 0xbd715be93d3d4ffaU, 0xbd40ee9c3c54a198U, 0x3d62c7f6bcffa6d4U,
  0x3d4982563d9c6c9dU, 0xbda4cf82bcbcae98U, 0x3d6a21123d59c206U, 0x3af34fc03d2c3c56U,
  0x3d2fe2eabc4c5ea0U, 0x3dd5ff093d97917fU, 0x3c1e8f48bd98f2a8U, 0xbd2febb43d9b9475U,
  0xbd9a167abd379d0eU, 0xbd5ec0983d13b1ceU, 0x3d4e65fabde1d691U, 0x3d7aa0fa3d451b0eU,
  0x3da1a019bd6bbb8bU, 0xbd29a7a63dd22a83U, 0xbd919c1abd17ede8U, 0x3d6875823db767cfU,
  0x3dd7db97bc0a8078U, 0xbc5acf43bd9b8da4U, 0xbcf7052abd676753U, 0xbdf161e3bd2bd2d3U,
  0x3dc3ef353da7448cU, 0xbcd03fbe3dbca2e5U, 0x3da8bcbebe01996fU, 0x3d7645f4be0161b2U,
  0x3df17de93d98c7a3U, 0x3dae60ee3d996419U, 0x3de59d5cbdfe82b4U, 0xbdbacef5bda86f17U,
  0xbc2156653dc517e0U, 0x3cf5cded3c0ec49cU, 0x3d1a5d46bd99e406U, 0x3d4730e3bd94b220U,
  0x3c360b283dc7ff43U, 0xbdca8ce73de05905U, 0xbdae894a3c15bee8U, 0xbd09c5cabcb8d270U,
  0xbd8549863d8893abU, 0xbd827ca43d70e6feU, 0x3d472a46bd099c04U, 0xbd0cd8e23d99185bU,
  0x3d5697c23d67b1baU, 0x3d23351a3dab7d41U, 0x3db8f6a13d5921deU, 0x3d840e5bbd0930d6U,
  0xbd8e80f63c7bd6c8U, 0x3d2bcc4a3da90aa5U, 0x3d9810313dd7423dU, 0xbde454da3c3f7c48U,
  0xbd8d0a55bd5ae108U, 0x3c9c7dec3df4535dU, 0xbdb05c4cbde548eeU, 0xbda7e7a6bcb07fd4U,
  0x3c89ce4cbd8b7baeU, 0x3dc117ffbdc14ddfU, 0xbdbeb5b23d9609b7U, 0x3d574b6e3c71d5b8U,
  0x3d67fd2e3d9c8223U, 0xbd35a992bd18dc62U, 0xbdb49214bbd8b130U, 0xbde85c9abdab3a2cU,
  0x3db56dcf3d010aa2U, 0x3d560d2a3d8cd845U, 0x3d5445d23d5fcb4aU, 0x3cbe43c43cbdbabcU,
  0xbd708f243da9f647U, 0x3db206d9bc55e4e0U, 0xbd1505203c86c4ccU, 0xbd0ffa66bda0ee93U,
  0xbdb4d713bdd7b09bU, 0x3db53b79bda60231U, 0x3d58ea323da89eb3U, 0x3c5b8158bd54d5e0U,
  0x3caa09643d87dfc1U, 0x3deba1593cea931cU, 0xbdaaecea3d868d91U, 0x3d5a11663b4a1280U,
  0xbbb0df50bd7cea0bU, 0x3cb20d4cbb94a070U, 0xbc537ea83db15d39U, 0x3d5cb10e3da52a2bU,
  0xbd4791a2bd16d4feU, 0x3c5e72483daba96bU, 0xbdf26adbbcd76cecU, 0xbde6549abd22164eU,
  0x3a350680bdc2f7b8U, 0x3d740bae3d8052bdU, 0x3de2ae1dbd976866U, 0x3ddb3b55bce95db4U,
  0xbc88ae443aff0180U, 0x3d9ec4d7bdbe428eU, 0xbdb6ec313c62d0a8U, 0x3df414f1bc178148U,
  0xbddecd48b8bb8800U, 0x3d8f7f2dbdc4cf94U, 0x3b97c9d0bcf25d08U, 0xbdc83573bc9f4618U,
  0xbd78e6533d0c71c2U, 0x3dba3e4f3d27adeaU, 0x3d4bfe0e3cf0784cU, 0x3bc486f0bdc1dd91U,
  0x3d3b3c1abda2ceabU, 0x3d93888dbdaa93feU, 0x3df125f73b9a6350U, 0x3dae9e31bcdc6224U,
  0xb9697600bda75242U, 0xbd0d9ac0bdad3e2bU, 0xbd139822bc829cb4U, 0xbcfbc716bd363b21U,
  0x3df0343dbdca3742U, 0xbfe077a5bdd0eb55U, 0xbcc066783d43a3caU, 0x3d20328d3dbbbd9eU,
  0xbb8be0163d16bee0U, 0xbd387fedbc88c6a2U, 0x3d9de823bdc10bb5U, 0x3da5206bbc7bd2bbU,
  0xbb9fcd86bda99679U, 0x3d8d6587bd8dc4e7U, 0x3dadd6be3d899f30U, 0x3dc073e9bcdd8586U,
  0x3db11bb1bbcd7c42U, 0xbdbeb483bd0112e3U, 0x3d7dbee2bda9f6fcU, 0xbde8f0423d3c6e4aU,
  0xbd1402ee3d933351U, 0xbd612414bc8130f0U, 0x3cff76243dc6d233U, 0x3daefff7bdcd91e3U,
  0x3d7596a2bcda83dcU, 0xbddb30ff3da758edU, 0x3b2a1440bcd3aa78U, 0x3de1a0d33da71533U,
  0x3d1892ee3d4ee172U, 0xbd722120bda641eaU, 0x3d3c1592bdcd2514U, 0x3de637ef3c8cc304U,
  0xbcd220b4bb7ac160U, 0x3df130ed3dbe53b1U, 0x3db3afad3d08e902U, 0x3da8541dbdbf9078U,
  0x3dc882c5bd4862a6U, 0xbda5eaa53de495bdU, 0x3dbc0301bc58a878U, 0x3daab2adbd27f164U,
  0x3c3c3ec8bd89a17cU, 0xbd8ed6bcbdd1a051U, 0xbddaa7e0bd0cb716U, 0xbde6ef623aec8a00U,
  0xbd7a746dbd14dd98U, 0x3d31fa82bd4c171eU, 0x3da7f575bde84eccU, 0x3d8f4ab33cc0b0b4U,
  0x3c623b08bdedc670U, 0x3d62d16e3dd71be3U, 0xbd83ee90bdcfd71cU, 0x3dd5c18b3cc7fed4U,
  0xbd144b1e3d93c30bU, 0xbd02a060bda30a03U, 0x3db0bccfbd919934U, 0xbce06540bd797173U,
  0xbdbfe0ddbcc10638U, 0x3d41e7e23d9cecb9U, 0x3d90e1433d8966afU, 0xbd92d70cbde49661U,
  0xbd6aa064bdc8dae6U, 0xbad9ad80bdcd2dc2U, 0xbdce32603d8b1afdU, 0x3da6bcb1bd91516aU,
  0xbdc96b2abdd26bfcU, 0xbbcbc1303c209d48U, 0x3dd5b15fbdc6cef5U, 0x3de31d7b3d0fd0aeU,
  0x3c61ff683dcf3249U, 0x3d2a651e3d9f1111U, 0x3da724f33bfe9890U, 0xbd2c78da3c72aad8U,
  0x3dcf8025bd81df9aU, 0xbd813f2cbbd89b30U, 0x3c660d38bd51137aU, 0x3dc9a2d9bd3e819aU,
  0x3b9ac7403d2f31caU, 0x3d721772bd7abc0dU, 0xbdee2895bb9ec570U, 0xbd879c9c3a6e4880U,
  0xbd81c03a3dbe3bdfU, 0xbc2918503cce94dcU, 0xbdc6ba303dab08adU, 0xbda4d474bd9b0b36U,
  0xbda3f14ebcfbf044U, 0xbdb920063d5cb62aU, 0xbd4a7f84bd13f0f0U, 0x3d889929bdb9f322U,
  0xbd0103d83dc07753U, 0x3ccbd8c43c5ca328U, 0x3d3a30cabd606a9cU, 0x3d0bbf32bd8b0954U,
  0x3b9aeeb03d2ed91aU, 0x3d86c948bd80c3efU, 0x3da1404639bd8781U, 0xbd56fb7dbd516100U,
  0x3d8d0453bc47b400U, 0x3daa526cbd9d1fe5U, 0x3c7f62e63da89566U, 0x3da139233d88c5aeU,
  0x3dda978fbd158410U, 0x3c3f439abdf9600dU, 0x3d80f757bda0e18fU, 0xbdb3c91e3ce1eeb1U,
  0xbc67b74ebb5b9086U, 0x3d08ab60ba91b56dU, 0xbd5232723cade238U, 0xbd1dff2fbd24ec97U,
  0x3d0ca1ba3bfdc9f0U, 0xbdd5244b3d843897U, 0xbd9ad21cbd44c3beU, 0x3d88863f3db15e5dU,
  0xbd71294b3cbf336cU, 0xbd838d8a3d59695aU, 0x3bf903f03d0cc882U, 0xbd448ba23b259e20U,
  0x3d1c2c1abcc80e4cU, 0x3ce04054bcc433d0U, 0xbd5b42e4bda0d13fU, 0xbc05ad88bd2fe8deU,
  0xbd11c9ac3d664f7eU, 0x3ce3a48cbd855644U, 0x3da1d391bdd3064dU, 0xbd6f3e163d35a0b2U,
  0xbdf169bf3da9eb5fU, 0xbdc67e62bdb2b9e4U, 0xbdd6d6fcbd7085b2U, 0xbddab02a3d234dfeU,
  0x3df4672bbd0191b0U, 0xbd6f5df03c7bdf18U, 0x3d9dc7b13dcfce53U, 0xbcb2f5d4bd1d63b2U,
  0xbdaef8393da4bf59U, 0xbdb821563c44fd78U, 0x3ca946cc3db866d7U, 0x3debecfbbc8c34e4U,
  0x3decf9473cf5ca54U, 0x3ded4889bd9deb90U, 0xbc58ff583d8cd257U, 0xbb8ccd703d8c6f07U,
  0x3d7dcc82bdcf5666U, 0x3dc58b6dbdb9593bU, 0xbdb84d973ddc0ca7U, 0xbdd747283de9700fU,
  0x3c1abdb83c48e6b8U, 0xbc71f888bd117eb4U, 0xbca483503d87f98dU, 0xbdd93f363df3b001U,
  0xbca755c4bde00e87U, 0x3dc0a8593c8a2e1cU, 0xbd0df682bd8245c7U, 0xbd766a583d96e6fbU,
  0xbd1021aabcda801cU, 0x3b825820bd8fa8e6U, 0xbccb4fd83daac853U, 0xbd146754bd27b622U,
  0xbda5e1b63ca48de4U, 0xbd29c2c8bbfc1b80U, 0xbced4298bdb87a75U, 0xbd8d76803dcac8d3U,
  0xbc708cd03d69afa6U, 0x3ddb1bdfbd831c18U, 0xbc630e783da77179U, 0x3ddd6f9dbde0f1fbU,
  0xbdac951ebdad966cU, 0xbd28ab1a3cd27d84U, 0xbdb83900bdb9e516U, 0x3cffa3f4bde13560U,
  0xbdc093073c14f628U, 0x3ddb37673dedb123U, 0x3ddcfe113d04de42U, 0xbd71e97cbc87d4e8U,
  0x3dd2cdf33d47ad06U, 0x3dadaca3bdb8c7b2U, 0x3d43f056bdd1f5a8U, 0x3da66661bd974cd5U,
  0x3d709d463dde8a0dU, 0x3d366f623d5a0b6aU, 0xbd96e4f43db168ffU, 0xbcc5d9ac3da185efU,
  0x3dd8ce7dbd04a070U, 0xbdd44f14bdd2b6a8U, 0x3ccd40a4bcfd32dcU, 0xbddb84e8bbdea7c2U,
  0xbdf66e49bdcbb277U, 0x3d37de62bc8cc76aU, 0x3b27d77cbd8982ccU, 0xbda71e943db07352U,
  0x3d3c9586bd04b730U, 0x3d8e13e03d5a5ac7U, 0x3cc7cd74bd393cd1U, 0x3d99bf903d34c5a6U,
  0x3c5836883a40b962U, 0xbbfa0c363da15fafU, 0xbcd76c44bd0614d8U, 0xbdb1f8f63da7c199U,
  0x3dd33697bd34f94eU, 0xbdbb5f97bdb9bba5U, 0x3da191cd3dae0f97U, 0x3d1759ba3bb65910U,
  0x3d347fa23cc6ef8cU, 0x3ca1905c3db1178bU, 0x3ca5530cbddb1180U, 0x3ddbe7813dc8817bU,
  0xbde5933ebc00dd48U, 0x3de9d03bbc98dfbcU, 0xbd8ed736bd624e76U, 0x3bff4110bdbe8296U,
  0xbde54e12bda6fe94U, 0xbdd6de6c3d73a9feU, 0xbdabd4f43db4698bU, 0x3d364cc63d961425U,
  0xbd95060a3c8c18dcU, 0xbc87cd90bb6196a0U, 0x3dad7121bdc6db35U, 0xbdf239d2bdad466aU,
  0x3bab8f203de1c701U, 0xbc4fea48bd48478aU, 0xbd8c71c3bd42ff52U, 0xbadac580bda81255U,
  0x3d8f5f71bdb55638U, 0x3cf7a3c43d101c1aU, 0xbd2f3afe3d2856c6U, 0x3ca269943d22868aU,
  0xbdb6b492bdb22b5cU, 0x3cb615acbcb165d8U, 0x3d03e88ebd8a8a32U, 0x3d955b7f3da3b4c7U,
  0xbd7e217d3dd5825bU, 0x3d863d013da19ef9U, 0x3d1b29febd7603acU, 0xbdbadfa03d9103b9U,
  0xbbbfc7703d34eb8eU, 0x3d2bf00ebdd8a390U, 0xbaf9ba80bda374ceU, 0x3c9b4f54bbbc13a0U,
  0x3d67936ebd859d47U, 0x3d8c5fe93b791b20U, 0x3dc6a4133d721d8aU, 0xbd9bb8b33de5c767U,
  0xbd012ac63dc4116fU, 0x3d0ebcdabcecfd18U, 0xbd9f1380bde85279U, 0x3c6f2bd83da574c5U,
  0x3cb30224bd9d2db0U, 0x3d75b0de3dbc3a03U, 0xbdbdcb363d623616U, 0x3d4fffcabcf6f440U,
  0x3d5ffd7abd3560a2U, 0x3d3a008a3d3b6b86U, 0x3bd2d4f03d92e119U, 0xbdcfbd6e3cd68324U,
  0xbd0cf95c3d133a3aU, 0xbd05a72ebc2f9530U, 0xbd6298003d28155eU, 0xbd5701ce3d9a9cc9U,
  0x3c4eacd8bc233bd0U, 0xbd5a86523d944dfdU, 0x3d07fc0ebbdf1f40U, 0x3d5cf592bd8d0626U,
  0xbd733121bde0ca13U, 0xbdd9e6783d93dd15U, 0xbdd1dafc3daa41cdU, 0xbdc1706abd8f8da6U,
  0xbdce55fabd0b952eU, 0x3d05466ebb4fd380U, 0x3d9aa6333c9f1694U, 0x3d5cb372bd99e619U,
  0xbdd974cabd490350U, 0x3de8a3f53dbf54b5U, 0x3d15faee3ddab86dU, 0x3d42be923d32bfa2U,
  0xbb3ec680bc04b9d8U, 0x3d95e6bc3c39db26U, 0xbc0044ed3d3ab226U, 0x3db0c44ebdcdc294U,
  0xbdd5c9d3bdb00d24U, 0x3d556efa3d422ee1U, 0xbda74d92bd86990cU, 0xbdcaf35c3c9aefa9U,
  0x3d52192abd89d407U, 0x3cac86f83d810580U, 0xbc067658bd2e02f6U, 0xbd25bdf53d9df366U,
  0xbc5d9de8bd94e5bdU, 0xbccf725f3c8d6a1aU, 0x3d9a68023c4e0106U, 0xbd1a3278bd30e5abU,
  0xbce98a0c3da915fbU, 0xbd82c4623d9f98b1U, 0x3dee9533bd8fcf00U, 0xbce12ab43bddc830U,
  0x3ac418803ca9d73cU, 0xbd48c1c83da85009U, 0xbdb8e5ce3d3a14caU, 0xbd5cc6263d395456U,
  0x3d4a2da6bc17fdb8U, 0xbd02f7cebdc37309U, 0xbdb67d9ebd876880U, 0xbd3cb1ca3df4b95fU,
  0x3d81cc133de60e47U, 0x3b9a6b003df309a5U, 0x39cc25003d839747U, 0x3d1adaa23dd5b483U,
  0x3c8949743dbf96e5U, 0xbdbcbafb3d712f6aU, 0xbd4eeb9c3c11ecf8U, 0xbdc0075ebd906194U,
  0x3ddab5213cad615cU, 0xbd705d07bd187d3eU, 0xb96bac003cfe1754U, 0x3d8a7b17bc0dfe00U,
  0x3ded51093dc4df53U, 0xbd9ef70e3ddab647U, 0xbd9c8284bd764bceU, 0x3b87ff503d3afacaU,
  0x3d8d1e0b3dd392b3U, 0x3d79c0ba3dd56c47U, 0x3d809cf73d930c7dU, 0xbdef160bbd920b09U,
  0xbd2d8bb23d49a30eU, 0xbc8209283db8def5U, 0xbbe864803d8de31bU, 0xbdbfdda33c3d97b8U,
  0xbde685bebd83b219U, 0x3d4c531ebd4fa6deU, 0xbd5ed2fa3dba664fU, 0xbda03fd5bba93480U,
  0x3d3e4e06bddb0de3U, 0xbc2d8e98bd955e28U, 0xbdeedd4d3bf677b0U, 0xbde16840bd96c579U,
  0xbdf304a3bda77c55U, 0x3d613b3a3c803184U, 0x3d35937ebdc32e79U, 0xbdc359ebbdaa4432U,
  0x3d8f61093c3ad6e8U, 0x3da7e971bddf6b65U, 0x3cd387543d474c56U, 0xbd4155f03de86649U,
  0x3ce92eecbdee9ebbU, 0x3d3a4e6ebde6608eU, 0xbd135bfcbd77f365U, 0xbd6bfd663da7988bU,
  0x3da1f81fbde04ba2U, 0x3dc8307d3d75fcb6U, 0x3d94d96dbd6e9decU, 0x3d522aa6bcd40680U,
  0xbdec1a0a3bca58b0U, 0x3d6249a63dc1c687U, 0x3d8aaee13cd5dd6cU, 0xbbcb5ba0bd492104U,
  0xbd70bb74bd972186U, 0x3dbd478bbdf1ea4bU, 0x3b93b310bcc04a80U, 0x3db65311bd34aa36U,
  0xbd3a8162bd1c3accU, 0x3d2faf1a3c7498b8U, 0xbdd7e67e3ba75170U, 0x3dbe70e93d3fb1aaU,
  0x3c9d66bc3c13de58U, 0x3d821b8f3c9fa414U, 0x3dbbc48dbcdfcf34U, 0xbe067550bd275e5fU,
  0xbcab1660bcc93fdcU, 0xbddca1f4bd30a094U, 0xbdd22959bde57e8dU, 0x3dbd2933bdc1d462U,
  0xbdd80d16bdf614c7U, 0xbde9a3993da452d5U, 0x3da103f9bde7aec5U, 0x3ae6921d3dbf38c9U,
  0xbc15c320bd709612U, 0x3c50ee38ba8ba7c0U, 0x3d4eb71abdb8df87U, 0xbd8b64ca3d7ec276U,
  0xbdfb0cc33c131758U, 0xbd926260bdc452a6U, 0xbda81278bd984a03U, 0xbd9620e83de9fa49U,
  0xbde6f48e3d4457baU, 0x3d67f9523dc85f9dU, 0xbcf39b643db137c1U, 0x3cbf9fb43db2b0c7U,
  0xbd8e1e9cbda2fad5U, 0xbd455230bc5beca8U, 0x3de36c3b3bf057b0U, 0x3ddf3d153df16f05U,
  0x3db85e6d3de05b11U, 0xbc7796203d41374aU, 0x3d8dccd33c67af88U, 0xbd6fc3fb3d364502U,
  0x3d5fe9e2bd5b21a4U, 0x3dbfa8b7bd942092U, 0xbd1273f63deb31bbU, 0x398f8100bdd7e58eU,
  0xbd8fc5b13df0a8edU, 0xbc9deb003cdaeb34U, 0xbd9b7509bdb5a44cU, 0x3c81292cbcc3394cU,
  0x3dba7011bd914198U, 0xbd867604bd8f2070U, 0xbcc319ec3dcb259fU, 0x3dc5d37f3d439e7eU,
  0xbc5ab620bbef5b50U, 0x3d8c37413d66f0e2U, 0xbd4005363d320226U, 0xbbbdd920bd499f52U,
  0x3d3c2d9abd24c9c6U, 0xbd5695ba3d19284eU, 0x3c661768bc7be6c8U, 0xbd3ad16ebdb9c75cU,
  0xbb047ea0bdb02a78U, 0xbcaa6fe0bd2a79faU, 0x3d60ec8e3ccc0e5cU, 0x3d55651ebd11f5f4U,
  0xbd519bb43de33283U, 0xbd7496be3dea5f5bU, 0x3d44f0eebd284630U, 0xbc83d84c3d94fe0bU,
  0x3d2db23e3938c000U, 0x3dd649013db32453U, 0xbd53757c3dadddc7U, 0xbd76c11e3d7cb05eU,
  0xbb4fbc00bd8e7a41U, 0xbd84a4403d018e1aU, 0x3db5f025bdae3554U, 0xbcc3f0843dc51a31U,
  0xbd98a1663d8d2b8bU, 0x3dc87ce13d2da59aU, 0xbdf0f4173dec2f27U, 0xbd835bb2bd57eb80U,
  0x3dc13c55bdd2b0c5U, 0x3a1198003d85a787U, 0x3df1871f3cc3b344U, 0xbc8e18c83c92a4fcU,
  0xbbb41060bd348a34U, 0xbbf836b03dced43dU, 0x3db9d4193d980f57U, 0xbd4f2cecbd1264c8U,
  0x3d3a44de3db3f3b7U, 0x3dcefdbfbda5eb68U, 0xbc5eaad83db9fac9U, 0x3ddcc873bd6e5e6dU,
  0x3d519ca63d93baf9U, 0x3d82e025bc1c4a08U, 0x3deec647bde5eea2U, 0xbdb75a4d3d8dc98dU,
  0x3ce13e34bd03fbd4U, 0x3c9cae543db83ac7U, 0x3d487342bca5ddc0U, 0x3d8f182d3d743fd2U,
  0x3d7de1463d8184d3U, 0xbf447b2b3da48fefU, 0xbf7a9a603d11e4b3U, 0x3dea80183da63461U,
  0xbdafdc7f3b707502U, 0xbcd516d0bf580963U, 0xbd498d09befff322U, 0xbf00d670bddcfa27U,
  0x3dcce24c3d49a5ddU, 0xbf814bf6bebcaf22U, 0x3d9725cebdab2ea7U, 0xbf81e1e1bdeaf915U,
  0x3cd24e4e3e149282U, 0x3e099c7c3d95fb5bU, 0xbf2fcab53e29c22eU, 0xbe6797a3be72e83bU,
  0xbdc62f873d702f56U, 0x3d6629e6bd231bdaU, 0x3dbba1353dcb2f47U, 0xbd8846c8bb2cd940U,
  0x3db4dcc9bc8c08bcU, 0xbddc1aee3d5a90e6U, 0xba12cf803d56108aU, 0xbd3d1aa43dcf2871U,
  0x3de3a4a93ddf57cbU, 0xbd8254b83aea3d00U, 0xbc577790bde6c695U, 0xbd6b8f8fbd012994U,
  0x3d700746bd75a65bU, 0x3d5923ce3d91a79fU, 0xbdccfc80bd441f5eU, 0x3d333a2abb8a3900U,
  0x3df4210bbd0cc08eU, 0xbd2192ae3d1277c2U, 0xbdc255c33d1f56c2U, 0x3c07f4f8bc51c840U,
  0xbd93b827bd623224U, 0xbcbc72e4bdb9bf87U, 0xbde59214bd9ed890U, 0x3cae33a4bdc06347U,
  0x3c591488bd5eee04U, 0xbd3c29443dd0c729U, 0xbd8994ff3ce76114U, 0xbd4f0e923d0cfafaU,
  0xbdadf5b23ce58fc4U, 0xbca91840bb7ada40U, 0x3dbda4f7bc38f948U, 0x3de6a9773c60d738U,
  0xbbadf7e03d19a3e6U, 0x3d5b6b8abd7187b7U, 0x3cbf53dc3bdea970U, 0x3ded8e3fbdca7f02U,
  0xbc81eae8bddb619dU, 0xbd297d563da84ec5U, 0xbdc7373ebd4508e4U, 0x3cb204dcbd514244U,
  0xbdb0983dbc428510U, 0x3dafb071bdbb8bb8U, 0x3daa9493bdcb3638U, 0xbd028c003b6db400U,
  0x3d80285b3c51e2e8U, 0x3dabf6373db7e5ebU, 0xbd35ddbebdf2a341U, 0xbd83b1153d464b12U,
  0x3cde6f643b318e80U, 0xba6199803d503c4eU, 0x3dab25edbdb18e74U, 0xbddff1613de3be13U,
  0xbda8ed8abd2f68beU, 0xbdeb9d773d9dd7e3U, 0x3d561726bc3fc6d8U, 0x3dde83abbc39e128U,
  0x3dd018b3bd6c2a31U, 0xbdbffa21bdec9c59U, 0x3df04a79bd9b7318U, 0x3d95a0e1bca71390U,
  0x3cf59e943cccf974U, 0x3b54a760bd7b9dbdU, 0xbb6952e0bd203c20U, 0x3cf42904bd390380U,
  0xbd94df823dddcf81U, 0x3c583148bdd22783U, 0x3bdadb90bcb82a38U, 0xbd142630bdad97eeU,
  0x3d8a23a5bdee7993U, 0xbd428a5ebdad9090U, 0x3c43d548bd4e292cU, 0xbc7a4eb8bc199cd0U,
  0xbd872ec13d48487aU, 0x3d1105fabde74ffdU, 0xbc8b4078bc206130U, 0xbe3df32fbe36e4c9U,
  0xbe40f79a3d37a15aU, 0x3e56cdf53da59c2eU, 0x3ce9619a3d040e96U, 0xbda4bd51bde098ddU,
  0xbda522c6bde060d2U, 0xbe7b07ebbd96e050U, 0x3dceb90b3a8e6b6aU, 0xbec5aec33d20b262U,
  0x3ce9ea5dbde87a08U, 0xbe5db1683ca4d9b1U, 0xbdaea5813d50beadU, 0xbf7d392dbf2ad367U,
  0xbe1028b1bf92f82cU, 0x3d058e01bc03537bU, 0xbdda450bbd916abaU, 0x3da52fcd3d88df53U,
  0x3c9beb243cc34accU, 0xba1632003d80b331U, 0x3db8e5a3bcc6f448U, 0xbc099af83d872573U,
  0xbd9467da3c5a43d8U, 0x3d8c8e73bc93bee4U, 0x3d5e5c3a3dd4eabbU, 0xbb2c6780bdf3c9afU,
  0xbd6677ec3c3983c8U, 0x3aea9dc0bdbc5e3fU, 0xbd39beea3c5eddc8U, 0x396108003dd0f95fU,
  0xbd53f674bded8742U, 0xbc773140bd43eebaU, 0xbd46f230bc7884d0U, 0x3d281f4a3d752c7aU,
  0x3c90fc543def9f6bU, 0xbd6d7ff73c042b28U, 0x3df0de29bd051bbaU, 0x3d9847ddbda0b178U,
  0xbdd2c6223def6c6dU, 0x3dcb48dbbcb46604U, 0xbc71f4f0bd831e88U, 0xbdb1de403ce9a2ccU,
  0x3d4c6f3ebd82b7d1U, 0x3d6e36723ccff1fcU, 0xbdeecf9e3de7188fU, 0x3d2b3c163dba29f3U,
  0xbdccdc0c3db43b3bU, 0x3aac5840bd8e8b8aU, 0xbdbc92fc3d3968daU, 0xbda187ecbbebf710U,
  0xbd9e526dbd98dcbaU, 0xbda76b77bd86af32U, 0x3deb3a8fbda8aeceU, 0xbd2635363de9c919U,
  0xbd8c5dae3c8333f4U, 0x3def251f3d729792U, 0x3d90992fbcd304ecU, 0xbd559770bc969474U,
  0x3d193fcabd8f9920U, 0x3dd0246d3cebbc4cU, 0x3d8e0a83bb90a340U, 0xbdee7f1e3c9079dcU,
  0x3dd03e0dbdac6b96U, 0xbd90fbf5bbde6c00U, 0xbdbcf5d1bddfdb13U, 0x3d462b563cddce34U,
  0xbcd1a8583d451c9eU, 0x3d0cf89e3d8c74a5U, 0x3dba343bbdec8ed8U, 0x3df44a09bddfcac6U,
  0x3c5fdb08bd86f634U, 0x3d4b16a6bc8097b4U, 0xbdc6b0a039dc7a00U, 0x3da12c19bc695428U,
  0xbd376660bdd2eed1U, 0x3d9e0db3bce546ecU, 0xbdad3211bde91b10U, 0xbd1383f0bdbab216U,
  0x3dcd0d71bdc06516U, 0x3d8f5d61bddcd1c2U, 0xbb267ec03b487740U, 0x3dc6f1c1bd981fceU,
  0xbde2cb65bd6f4b97U, 0xbcc22a743dca0a5bU, 0xbddc539abdca2998U, 0x3b5eedc0bd89dc38U,
  0xbd99e082bcacc1bcU, 0x3dbcd6cdbd71bf79U, 0xbd81cb723df1f55dU, 0x3d01b56ebddfca16U,
  0x3d28315e3d5d80caU, 0xbc5152a0bd8a1c62U, 0xbdf763f23dcaa467U, 0xbc8df4723ca86a8eU,
  0xbcd5e2fa3d6a8fc6U, 0xbd2dfbfc3daa9aecU, 0xbd17955e3d4e23e6U, 0xbdc09818bd5d4a94U,
  0x3d460a12bcb8d1e9U, 0xbbe0db75bd566484U, 0x3db5e78b3db61cceU, 0x3d7ad1963dd2e0abU,
  0x3a989300bda5d011U, 0xbd4bf75abd87d82bU, 0xbd26827abd6690bcU, 0xbde99cf73c830431U,
  0xbdb48de23d2528beU, 0xbdd029ed3d3d66aaU, 0x3cb3745cbd63a082U, 0x3dceed3f3c096108U,
  0xbd7bfb90bdd53576U, 0xbd371330bceeaea8U, 0x3d4e82863dbf60b9U, 0x3d1a493abd7f4ce5U,
  0x3d983743bdc58e62U, 0xbd775bf6bd3a1902U, 0xbcc487c83c0b64d8U, 0xbd058f6e3dd6b0b9U,
  0x3dab88ffbdc07288U, 0x3d706feabdad1a00U, 0xbdc70a0cbd6d269fU, 0xbd4b49debdd6c85fU,
  0x3d3b8d16bcedf2f4U, 0xbda71218bcfece04U, 0xbd015d203c7c5fd8U, 0xbbb24cd03b9b19c0U,
  0x3cef7ff43d29f006U, 0x3cda94d4bc67ab20U, 0xbdaf87be3cc61f1cU, 0xbdb8e0933dc19f3dU,
  0xbdd577bcbcfd87e8U, 0xbb9adfa03d8a3ca9U, 0x3c7e90e8bd325d4aU, 0xbdae0b763dd58163U,
  0xbcf19d603dae6131U, 0xbdda5e4b3d69ae62U, 0xbdaf9380bb87e0c0U, 0xbc4192683dd5eef1U,
  0xbdbaa1d03d6ed7a6U, 0x3d0c984ebdcf1eb8U, 0x3de516b73dafca07U, 0x3d93c2773da9fd27U,
  0x3c0399a8bd72f81eU, 0xbd9ba136bdb09c4aU, 0xbd3310e0bdde43efU, 0x3c0512e83cbbbf7cU,
  0x3d992b633dbd9dbbU, 0xbdcd2f81bd5bc0b2U, 0xbdb89f17bbe82970U, 0x3dda6da3bd422b1cU,
  0xbd8481febd050768U, 0x3dc32daf3da7e3e3U, 0xbdbb44d03d7359c6U, 0x3ddee9713d9ecc39U,
  0xbd90cac63dbdef9bU, 0x3dbfd3633d440d6aU, 0xbd9785403d6ab49eU, 0x3cad67bcbd201808U,
  0xbd8975f4bdc252d6U, 0x3d838459bcbf4464U, 0x3dca90533d622cb2U, 0xbdeada60bd86415eU,
  0x3d73837abdd413c4U, 0x3d8e6579bbecf6e0U, 0xbd5f02a2bda2d2fcU, 0xbd4030d63d45714aU,
  0xbcc303ccbdc02962U, 0xbdb5a412bda81aa8U, 0x3d1f1886bdd3734bU, 0xbd19673e3d80c9abU,
  0x3d9eac03bcb1ee48U, 0xbde906ffbdb0ad10U, 0xbc633d183befdf50U, 0x3dc42e29bd889b8eU,
  0xbdab4a2cbdb2404aU, 0xbde9af64bd58132eU, 0xbb71f7003de04ef3U, 0xbc32b7b03d6d8766U,
  0xbdd9b3f9bdca23dfU, 0xbdf40b96bdcb33cdU, 0x3d8083ab3dd38a51U, 0x3e09ef443ef4d6e1U,
  0x3dcd3cd43d991d95U, 0x3ea7daa0bf0607bcU, 0xbdee84ba3c4f787aU, 0x3da4d33b3d04d570U,
  0x3db3738fbd0cd0b7U, 0x3cb6e2823d7760bdU, 0x3be0954dbdc35dbbU, 0x3d7088553d84feecU,
  0x3d7f6db2bd3847d3U, 0x3e0c2f57bd053577U, 0xbbfade23bd91b913U, 0x3d606acfbd8b24c0U,
  0xbd00f3813dd6f593U, 0xbdb2320e3df36080U, 0x3ddebfa73d63c2aaU, 0x3db8b64fbd186722U,
  0xbdb0a3a03dbf5123U, 0xbcd2f470bd94715eU, 0xbd46d8f03db37389U, 0x3de3874dbd6e4a23U,
  0xbd80a2e5bd5cb31eU, 0x3c0d50d8bd1e23ccU, 0x3def08cb3d8e916dU, 0x3d88eb193ddd51f9U,
  0x3df0f9473cfb2ab4U, 0xbda1a650bcd3985cU, 0xbd3e6b9cbdec1d07U, 0xbc97b2b83db96b95U,
  0xbc1fb778bc1f07e0U, 0x3d12b25abdc9698dU, 0x3d8cc86b3ddacdbbU, 0xbde1a3a33d0a5692U,
  0x3bee19d03dd586b9U, 0x3d3a3b02bcfa1a5cU, 0x3d965b9b3d05089aU, 0x3d7b499e3d95dbc7U,
  0x3db272b7bdeb8eadU, 0xbd90a78c3d6f0dbeU, 0xbdf441edbda9cf3aU, 0x3d4f5856bda04ddcU,
  0x3d1cd346bd3921a8U, 0x3d9c80adbdc9a1ecU, 0xbdc698e3bbf291e0U, 0x3cef74c43d066e2aU,
  0xbd8122e7bd593fa2U, 0xbdb1d76cbd2f4a42U, 0x3ddc70093dc7f79dU, 0x3b8364203dd57c8fU,
  0x3da7240d3cefd814U, 0x3d538c22bdcea2afU, 0x3db19a5d3bce5990U, 0xbde40e8abb751ee0U,
  0xbd2d08383cf92604U, 0xbdc65f523cfc294cU, 0xbd0fee5cbcec2894U, 0xbde38298bd579ef2U,
  0x3c7a7c483dbe0479U, 0x3dd74eddbd8a2c76U, 0xbce188d4bd6a0b23U, 0xbd8012a93c994664U,
  0x3b934f60bdcf4f37U, 0x3cbd9de43c1b25c8U, 0x3d8d2f533d38c0c6U, 0x3deccc8bbd6177aeU,
  0xbd945f28bd74bd2bU, 0x3d73acfa3deca7fdU, 0x3caddce43dae12ffU, 0xbd89edb6bd8baedeU,
  0xbdd5ec493cc82754U, 0xbd29c3963db1ddcdU, 0xbd11b90ebda3b2c7U, 0xbcfe4b803de6b06dU,
  0x3d8f30833c9c6ca4U, 0xbcb1e86c391ad800U, 0xbdb3f71ebdeba0b9U, 0x3dd818efbdce8e09U,
  0xbd618b323d7eae6aU, 0x3cfdfb8cbdf0473fU, 0xbda89909bcd85844U, 0x3db1a257bd97a5c6U,
  0x3def3e81bdee8601U, 0xbd347866bdd8f47fU, 0xbd2f4b383dd63723U, 0xbdb18188bd470dfaU,
  0xbcf3b1ec3d83531bU, 0x3de1b9fdbdc001a8U, 0xbbdfb5a0bcb1f994U, 0x3de58d893d50aca6U,
  0x3c864c543be27fb0U, 0x3dac9d8dbc8c160cU, 0xbd6aea04bde432ddU, 0xbda8cf63bd642e27U,
  0x3d60b9743cdc3a45U, 0x3d92a5c6bdfa4ae5U, 0x3d851d463dbe5807U, 0xbd51964e3dab6c70U,
  0xbd8c0b5f3dc5c92cU, 0x3d26884b3dc4f7c9U, 0xbdaa5d27bca75f4aU, 0xbdf688253d8818bbU,
  0xbda46dd83bef2561U, 0x3d165fa13b8f916eU, 0xbc72c479bdb5c908U, 0xbd0311eb3d936984U,
  0x3d8cf5993cd0b304U, 0x3b23b6e03d5a9216U, 0xbd27e3bc3cabdcacU, 0x3ddb805bbd06a208U,
  0xbcc676e4bdc89146U, 0x3d9fe4113cebe584U, 0xbdda3ebdbda2513aU, 0x3c8a9d9c3d8ed175U,
  0xbc51f3083ce78fecU, 0x3d44870e3cb78af4U, 0x3d29197abdd55e71U, 0x3d07703e3d98a5cbU,
  0xbc38b7a83d17894aU, 0x3d295116bdc716d2U, 0xbd241428bc8cb04cU, 0x3d3a6a9e3dad9a65U,
  0x3de585513dcea791U, 0x3d3f604ebdd124caU, 0xbcce7338bcbbe608U, 0x3ca6392c3ad01400U,
  0xbbd2b3003de87297U, 0xbbdab830bd9c4e76U, 0xbda49d663dd6d7abU, 0xbdbaec283d421382U,
  0x3d72d0863d7e4ff6U, 0x3bdb35703cf0a654U, 0x3bcf5bf03d37192aU, 0xbcba99d4bd1f5300U,
  0x3db656933c364858U, 0xbda1ab36bd68c9a6U, 0xbb9a81703d69704aU, 0x3df4a9ed3d387e36U,
  0x3db327993d9d2c03U, 0x3dea94333dc6605fU, 0xbd113980bc92f3a4U, 0xbdc3bd513dc543ebU,
  0xbdc72381bde05c3cU, 0x3dab4c3d3d894d81U, 0xbd8380cfbd98dc30U, 0x3d03433abded3603U,
  0xbcf60bf43deb7c85U, 0x3dbcc0e53d81f1cfU, 0x3b5732003c31c068U, 0xbdc8c63dbdad3584U,
  0x3de025abbb6e5580U, 0x3d19e4763dbb3925U, 0x3d848d1b3d9ec1a1U, 0x3dd4c41f3d7de94aU,
  0x3d18bf5e3deac9edU, 0x3b211a203c268f28U, 0x3d1dc23e3c5efe88U, 0x3d73fa223d6d2aeeU,
  0xbcd02f203b2bd1e0U, 0x3da8a93fbdd4274fU, 0xbdb10ef83c2139f8U, 0x3c9545ecbde328beU,
  0xbddce426bd2d7b88U, 0xbdc385e73da96d5bU, 0x3d931ef13d2be526U, 0xbcbbd1983d84932dU,
  0x3cab95243d6246aaU, 0xbd4497f03de05455U, 0xbd23ee923c3f79c8U, 0x3cd340743da34cf9U,
  0xbdea669ebd6593b2U, 0x3de8b42fbb010220U, 0xbc6030b8bd1a0ec0U, 0xbc1e04483b96fc80U,
  0xbcc3e304bcb0b0e4U, 0xbd8a61c13cc5b88cU, 0x3d9cfaa9bd2ed8c6U, 0xbb99c9a0bba42c50U,
  0x3b1b1b60bcb8ecdcU, 0x3d5a4f76bda8e790U, 0xbdb9f441bcbbcac8U, 0xbd02bf853d9596a3U,
  0xbd4bc4e8bdb16b68U, 0x3c3a8f50bcf701e5U, 0xbd4f92813d091cadU, 0x3d90b41ebdac7cfcU,
  0xbbd763743d8dbc71U, 0x3d189c5a3d0a3be6U, 0xbdb31312bdd64d45U, 0xbc03ae1dbe08c7c3U,
  0x3db4da2dbd55ff5fU, 0xbb1c71e7bd7c1cd2U, 0x3cd16c2b3d14fca0U, 0xbca67eb6bbc24ba1U,
  0xbd0b70393d49923bU, 0x3826df0e3d1fcd9bU, 0x3d4f547e3de12d8dU, 0x3da994c33d3d6a2eU,
  0x3d9e69f53db21aedU, 0x3da75d95bd554172U, 0xbbddc4e0bca48464U, 0xbdbfa2ecbdb8e1c8U,
  0xbdf0e4e5bde19deaU, 0x3daf4a0d3d49edcaU, 0xbd9034d5bd92f144U, 0x3df38b433d91d9ddU,
  0xbd441bf6bc2ddf80U, 0x3d501192bd84daf2U, 0x3d7e418e3dccaa39U, 0xbd716b923d030a1eU,
  0xbd4d9c9e3c283858U, 0xbcfc7b84bd42dffaU, 0x3d97486d3ce849bcU, 0xbc6d33d8bcccded0U,
  0x3ddfee513c80068cU, 0xbc7ccbe83d6a2c9aU, 0xbdbf22583de651a5U, 0xbd3949ba3def6be9U,
  0xbde6d1ec3d7ea0deU, 0x3d4441d2bdf13b03U, 0xbda47c1db860b000U, 0x3b3b3aa03d6690deU,
  0x3db2b451bbc96d10U, 0x3ccde5a4bdb6862eU, 0x3cbb7f9cbdd17b02U, 0xbdd57d94bd7d141dU,
  0xbd8488e9bd309b68U, 0x3db227573ded88b1U, 0xbd0976a4bdbae7adU, 0x3d51f9da3d1de1baU,
  0xbcd5eeb03ddb6157U, 0x3da1baf1bd5776c2U, 0x3d7c440ebced4080U, 0x3ddb64c73d41b01eU,
  0x3d48baae3d86f48fU, 0xbd33760c3d03cfdeU, 0xbdbad0af3d92c66fU, 0xbc1640b8bc6995e0U,
  0xbd86bb263ccb87f4U, 0x3dd7e5f13d1b2eeaU, 0xbd08c7b8bd2e5a24U, 0x3de20dd9bb950df0U,
  0x3d1b31aa3c243138U, 0x3c6dc3f83dcebd47U, 0x3dcd7de9bdbb336cU, 0xbddf107c3dcc54cbU,
  0x3c337ee83dccde0dU, 0x3d65666e3d871e37U, 0xbd54aa5ebdb00458U, 0x3d3a37263dc9ca3bU,
  0x3d8cd73dbdca3cc3U, 0xbd859ba2bd84c079U, 0xbdaec16cbdc08c7cU, 0x3d1dfffa3dc4e801U,
  0x3dbde881bd1cc98aU, 0xbc163768bde64afbU, 0xbdd244c0bd94696cU, 0x3ae7ee403db729cfU,
  0xbda6aceabd9e58b0U, 0xbd542ca8bddf5513U, 0xbc74eb503d978e0dU, 0x3cdebb543d20a086U,
  0xbd462992bd8c169cU, 0x3d72022abd82b87dU, 0xbd96f0403dc8e6cfU, 0x3d9a1e99bb462b40U,
  0x3dcc0f61bdb75ea2U, 0x38aaac00bd185630U, 0x3db0506f3d527a2aU, 0x3c7c88f83d7647beU,
  0xbdbe3764bd35e74eU, 0xbcc9cb273d7442e5U, 0xbdb2f5b3bd4d6debU, 0xbd8832ab3d94b83aU,
  0xbde1606f3da11085U, 0x3c80eb34bdaa6516U, 0xbd9a441ebd9c8e99U, 0xbdb6fafa3d5ce88aU,
  0x3da53cd9bd6d210aU, 0x3d5275d53de18fa9U, 0xbddff75bbd4133a9U, 0x3d33f358bda060f0U,
  0xbdc4a6c3bd058f8cU, 0xbdb8ebc0bcd206a3U, 0xbdfe513e3db1fa3aU, 0x3d87049e3dbd8cb4U,
  0x3c443c083cf8f25cU, 0xbceccde0bd16a92aU, 0xbcc374f0bc6390a0U, 0x3d82d825bca179e0U,
  0xbdde0a38bd98194eU, 0x3c22fd383dbabed1U, 0x3d8cae23bd6f7756U, 0xbd1540ccbd3e5304U,
  0x3d5cdbc23d5c895eU, 0x3d967993bd8a3cc3U, 0xbdca7015bde1c10aU, 0x3ccdbe7cbc7b48c0U,
  0xbde1d2e83da8edadU, 0xbd96ecfabbf53e00U, 0x3d3076c63c8ca3ccU, 0xbc4aba60bd87d156U,
  0x3db63b493d7da262U, 0x3d37d5eabd1829f8U, 0x3dafa0cfbc1347d8U, 0x3cffbeccbc04ca18U,
  0xbd580558bdba21b0U, 0xbd7c55bf3cf5011cU, 0xbded72b7bb62bf00U, 0xbdcfa2223d1548c6U,
  0xbdc9af66bcec0820U, 0xbdccb7ec3dae5b27U, 0xbda62332bcfc8fa8U, 0x3d1921b6bdd33d16U,
  0xbde5ab223d01904aU, 0x3d819d6d3d1f9766U, 0xbbb503003da44e8bU, 0x3da72b0f3c6e38d8U,
  0x3dd87fefbd9a5394U, 0xbde62bbabd20053cU, 0x3d611fe6bd87e47aU, 0x3cc1f0f43bf5b950U,
  0x3d2b1db23d9bca13U, 0x3cf30c343cb034a4U, 0xbdc016093d94e4c9U, 0x3d4b01fabdcd30c6U,
  0x3de66a033db6cb4bU, 0x3d90560bbc6b3330U, 0xbdb83202bd888b98U, 0xbd28e6803c94ff94U,
  0x3c4bb9a83dd78e8bU, 0x3d6ea7f6bcef9248U, 0xbd9e6b363b861d70U, 0x3d57e1c23dad5087U,
  0xbd0107d8bd349c6eU, 0x3d95a7bd3ce600bcU, 0xbc5b29b8bc90866cU, 0x3caf22943cc8b6e4U,
  0xba122380bd4a9c88U, 0x3dcf8dcd3dd0c213U, 0x3d646f863d58ebdaU, 0xbd38026abc2f0f78U,
  0x3d8678c33d2b9f0eU, 0x3decece9bc77e528U, 0xbd83a0aebd10e6f8U, 0xbda64fd63cfd16b4U,
  0x3b759ac03da16f55U, 0x3d23daeabd28bd88U, 0x3d73c2863d9f84f9U, 0xbd8e7b2ebdcc43ceU,
  0xbdcc040a3d519a06U, 0x3d5ce7d23d91288dU, 0xbd2c2c5c3d2b3b02U, 0x3dd421273df0d955U,
  0xbd34588c3deb94cdU, 0x3daa07633db5af01U, 0xbc9a3010bd631e96U, 0xbdcf6edcbd3e2d1aU,
  0x3cdc4a3cbd0ce41eU, 0x3dd0cdb7bd5b0794U, 0x3d7fff0abdc4a21dU, 0xbd8ba96e3de5b5bdU,
  0xbc0cef453ef9a62dU, 0x3b173656bd5d013cU, 0xbd97caa23e795680U, 0x3cf0b2693cd835feU,
  0xbd132bee3d30e31bU, 0xbd6780acbc247cbbU, 0x3ebc7a4b3d870013U, 0x3d030560bd8a7187U,
  0xbd96f730bd41ea69U, 0xbdd0f4153d90c662U, 0x3b34a5223ec109bcU, 0x3dc1fcb73e01c28eU,
  0x3d4392cd3daf50aaU, 0xbe641f9abdbd9d9fU, 0x3b931d70bab78040U, 0x3d081ffe3a596d80U,
  0x3da5cb5dbb1e84e0U, 0xbd65f94a3c89836cU, 0x3d957f57bdc1443cU, 0xbce4764cbda4b6ccU,
  0xbdcf3a763dd436c5U, 0x3dba351b3b23ab80U, 0xbdd84738bdf3dc1bU, 0xbce49254ba062a00U,
  0xbdcf17623c4f9718U, 0xbd973fd23af33d80U, 0xbd584e32bdac7b42U, 0x3c28b578bd2f2ed4U,
  0xbcc678643dc6619bU, 0x3dc6ea313d227046U, 0xbd55d9e43dc13a0fU, 0xbdf3ec453dea5fbfU,
  0x3df0aea3bcf9b550U, 0xbadd37c03d817c9bU, 0xbd30f996bd68e48cU, 0x3ca34274bce9ce30U,
  0xbdb4fb7cbd8b72ecU, 0x3de76d613ddd0573U, 0x3d97abb1bd8c4980U, 0xbd7d631ebd5813deU,
  0xbd9473163ca6bd54U, 0x3dc22457bdab2a97U, 0xbd72b72f3d9656d7U, 0xba9019803dd20203U,
  0x3c986984bdeac694U, 0xbdbdcd27bdc606aaU, 0xbda6b279bddbfd70U, 0x3cdc27dcbd87d716U,
  0xbd86cb583d7bba36U, 0xbd390e423d355502U, 0x3de1da8b3d96424fU, 0x3cec27043d9d421fU,
  0x3de5e9f53c1b0ac8U, 0xbd0f16523dc83d93U, 0x3d08b8be3d05d21eU, 0xbdac06c83d382c8aU,
  0xbda69ffabd608838U, 0xbdac51febd775aeaU, 0xbdcab2f8bce7090cU, 0xbbd69dd0bdde76a8U,
  0xbd8e6772bde31dfcU, 0xbd50b552bdb60446U, 0x3c0c74c8bd884fcaU, 0x3d5e40da3cc77aecU,
  0xbdb4f5a43d6f84c2U, 0x3da8e27f3ce7e1a4U, 0xbacdba80bdf40767U, 0x3db7e5a33d86001fU,
  0x3cbdc43c3d496dceU, 0x3b94e0803dd6a719U, 0x3ce207843d124c3aU, 0x3d9c5a313d51bb0aU,
  0x3d65756ebd8c2e62U, 0x3cdc30d43daa3e97U, 0xbcc7c6e0bd13e3daU, 0x3dcd500fbde78c7fU,
  0x3d72525ebdef83eeU, 0xbd648afabb573560U, 0xbd4313403de90a7bU, 0x3dcebbcdbc82df54U,
  0x3ccb5a1cbccf2e54U, 0xbdbdbe51bc4c37a8U, 0xbd8dabbc3d45dfbaU, 0x3cd0e24c3da42739U,
  0x3df4bf8fbd9b2d56U, 0xbd252d0abda10efbU, 0x3d8ecc79bdd8505cU, 0x3d56d3ca3ddb3c71U,
  0xbdc17f443d18e2deU, 0xbcb99c573cb26e1cU, 0x3d8b5424bcc9cf7aU, 0xbe925549bf416edcU,
  0x3d5664973b178a45U, 0xbd0cc66cbbdf84adU, 0x3d290a3d3d0c612cU, 0x3d54b3db3d33bcbbU,
  0x3d390db5bdcc537eU, 0x3cea87ecbd8e5cf7U, 0x3db8586f3db5d851U, 0x3d71193a3e025aebU,
  0x3a8200de3c17cb86U, 0x3d4ddc953d18bd1bU, 0x3dcdb939bde929e4U, 0xbd5416a4bd4104e7U,
  0x3cbaeeacbd641bacU, 0xbd4b0ecc3d335402U, 0xbcc0c0103da2d693U, 0xbdc332fc3dc161e5U,
  0x3db278a53c26f938U, 0xbd8fa58e3c76db18U, 0x3d0e929abda831e3U, 0x3c599ab8bbcb9e90U,
  0xbc7ea4603df29f9bU, 0x3de3b2e53d8c76b1U, 0x3c707d68bd9ccfc5U, 0xbd3343503de2ad21U,
  0xbc0b4d90bd54ba6aU, 0x3d13ea7ebd8d1d34U, 0x3d4836de3db790f7U, 0xbd87d084bdc02678U,
  0xbd908d16bd9c3bd4U, 0x3adc6e003d9be855U, 0x3ae657c0bdd2a731U, 0x3d541a8e3dd12a37U,
  0xbdd200563dd08199U, 0xbddba7af3d297fdaU, 0x3dd57fab3d17e1aeU, 0xbd863b92bd588edcU,
  0x3c5d64a83ddb42a3U, 0x3dad5773bd7b76c6U, 0x3d58c06ebd7214e7U, 0x3d6c8a323b54fb00U,
  0x3dde837d3d0818caU, 0x3c70f4e8bc3e11e0U, 0x3de524453d47c89eU, 0x3ca81d7c3db9d471U,
  0xbd948075bc2d5ab8U, 0x3dd8a60bbddeb87cU, 0x3d35f39ebddecc03U, 0xbdf38a283c9c6454U,
  0xbdb4bdd03d7d8e5aU, 0xbd5d050c3dc3928bU, 0xbd3ae9643bfecff0U, 0xbdd92aec3dcd982dU,
  0xbd9f241a3b2f4f60U, 0x3d938cb93dda9c97U, 0xbd325f3c3a63ab00U, 0xbdc84dbe3d204eceU,
  0xbda3450a3d7c4282U, 0x3e08ab3bbc75f440U, 0x3d4477bdbdf1102eU, 0xbc3c7d57bcd2e9cbU,
  0xbd7ae0c93e00e235U, 0xbc0e8f593d2cd602U, 0x3d91412dbcf9277cU, 0xbc37e67e3d8274aaU,
  0xbd29a3c3bc8feab3U, 0x3c9f9bf2bcd56fdfU, 0xbbd09a24bbc4b672U, 0x3c45967a3d5b51b6U,
  0x3dca85dfbce90cf3U, 0xbbd54897bc3419d2U, 0xbc2b601bbc377828U, 0xbc663eddbcca8839U,
  0xbcacaf66bd64cff6U, 0xbce0e3ee3d76e483U, 0xbbd60db9be2c7551U, 0xbd64e4a9bd4c74daU,
  0xbb131a22bda3a749U, 0xbe04c32abb39d75aU, 0xbe80a72b3daf849dU, 0x3ba7272ebe3e0fc3U,
  0xbdc35d1ebd9444b6U, 0xbc8fa3453de4f1deU, 0xbc994c81bc4efbf0U, 0xbd04e8353dfb9886U,
  0xbcb4944c3a6955aaU, 0x3c547716bb4edd1eU, 0x3d018fee3cb7912eU, 0xbe00e97c3e51f7aaU,
  0x3d24b7d9bc8be2bcU, 0x3d2967dc3de80ffeU, 0xbc2411f5bcec5e6bU, 0x3ad72e673bef0020U,
  0xbdc2acebbc36fcd0U, 0x3cee8b783e130d90U, 0xbcd5da5e3d538a73U, 0xbb94c1013c9e4a5bU,
  0x3de4ad10bd97f37dU, 0xbdd8dbb2bd24e097U, 0xbdf9ad95bdfe751fU, 0x3c9b3a5dbe3c907aU,
  0xbe003d2a3d38694eU, 0x3c989c483dca5e70U, 0xbd43d72b3d311acaU, 0xbd19efef3dbc3221U,
  0xbd2446fa3cd9bd96U, 0x3d7b203a3c8ea28dU, 0xbd09db7e3d041191U, 0xbe224d933e66156aU,
  0xbcbd7237ba55776bU, 0xbc8985833db5443fU, 0xbd0f7b51bc66135aU, 0xbd145e103cd98d1eU,
  0xbe1ba2bcbc636145U, 0x3b5e70ff3e89844bU, 0xbd02493e3aaae650U, 0xbc8fb564bcc2c441U,
  0x3d8cc66fbe8746dbU, 0xbde0e6babc07adc8U, 0xbe2617c9bd74396eU, 0x3cb23797bdd6c4aaU,
  0xbdf126c3be27eaf8U, 0x3b8c87773d7bd602U, 0x3cb795a53cc1d531U, 0x3c58f9273e41d829U,
  0xbcd011613cc52b00U, 0x3d4a46a2bb16f9d6U, 0x3cd29cbf3c04acecU, 0xbd2dacc03e5a8e7cU,
  0x3d6efcbc3cb2761cU, 0x3c7625ca3e0471a9U, 0xbd17dcc63c97b4fdU, 0x3b8be3f5bcb60fefU,
  0xbd1782173c3664b4U, 0x3ca6491f3e1ff033U, 0x3b4cfddcbd2508e6U, 0xbc8bdc9ebd03479aU,
  0x3dd133a2be1878f5U, 0xbccbd61cbc057be5U, 0xbe0df355bdf38914U, 0x3c26df9cbe60ec26U,
  0xbe76ceebbe14f3b4U, 0x3b54d7dd3d83e0d5U, 0xbd3ec9bc3bcd4198U, 0xbd2bc2203e35f369U,
  0xbd141d4f3ab53abfU, 0x3d2e2330bcdfeafbU, 0x3b62f89b3d0900cbU, 0xbe34bd093e3d0159U,
  0x3d85478bbd1bf216U, 0xbb12a2613e1834ddU, 0x3d0668a73c991175U, 0xbc3b37f4bcb5f45fU,
  0xbe5c90453cfb46baU, 0x3cda9a703e45b8b5U, 0xbd168f1e3db2f1a2U, 0x3bfbc631bd301d44U,
  0x3db0496cbe78d9b4U, 0xbd3b0b60bcd391ccU, 0xbdf6e35cbc89f2b1U, 0x3c58666cbd0d62f4U,
  0xbdc215d2be101b8dU, 0x3ccde5853d916d29U, 0x3da492c3bc8628e2U, 0xbd33f6f33e140e0bU,
  0x3c2a893e3d0ef37bU, 0x3d94e4f43d07a56bU, 0xbcd094943a964594U, 0x3b4f006f3e687f54U,
  0x3d76e58fbc7c637dU, 0x3ce1c5c23deddde1U, 0x3cbd420d3c122c78U, 0x3d08c8453b0adac0U,
  0xbc40f2c33cad834bU, 0x3c18cd19bd748895U, 0x3cafc4c13d47f4f6U, 0x3bf8aaabbb33e8d9U,
  0x3dc7bcaebd5ce43dU, 0xbc9bfedcbd00ea3cU, 0xbe132696bd894f72U, 0xbcc45c95be9c5f74U,
  0xbe63eaf0be54dd72U, 0x3cce03c33dad9767U, 0x3d34003dbb7e8f35U, 0x3c53e3a03e47a990U,
  0xbd407493bc5fa80cU, 0x3d88130d3d0fe91aU, 0xbc2831c9bc2f5fc1U, 0xbd1a04773e98ce53U,
  0x3d85c204bca68341U, 0xbc5a32573dcb20e6U, 0x3ce734443d344e3bU, 0xbcbdd002bd075fbaU,
  0xbe3edc683c2a9b6aU, 0x3c17cf913bfd505cU, 0xbc1bc7f6bd4762e3U, 0xbc6206d63cd0d945U,
  0x3da4f5ecbe794be8U, 0x3c3582ef3c646771U, 0xbe3ad6cfbe0c04adU, 0xbce67eb8be15cc67U,
  0xbdbf3639be544327U, 0x3ced25653d328c76U, 0x3d933c15bc97bdd0U, 0x3caa83583e0a552aU,
  0xbd05a5c93c4146f7U, 0x3c892c99bc514bfdU, 0x3c92b56a3c2f00b6U, 0xbb8f9f0e3e9bfbd0U,
  0x3d38d88fbd2e4755U, 0x3d13b6be3de83ca0U, 0x3c0c87b9bd07413eU, 0xbc7fd7e93bfb6a06U,
  0xbcd57f5bbccd9e14U, 0x3c01b34abd155929U, 0xbc4509803cd10413U, 0x3c22f2da3bbc6288U,
  0x3c8adeacbe5a4088U, 0xb8ca2ac4bc16050eU, 0xbe03104abd062247U, 0xbb1a812dbe5ac587U,
  0xbd3981dbbe74ee88U, 0x3cd94fd23dd024e1U, 0x3cd571583d3c7411U, 0xbd284fc83ddc6d13U,
  0x3bcaa81a3cf902d8U, 0x3d9eaba6bc79744cU, 0x3be9d9d6bb9b5746U, 0xbc9aa1533e610f00U,
  0x3d6d91eb3ce81fffU, 0x3cbed6933da2c4ceU, 0xbcc73ff1bbaaeeeeU, 0x3c555e1cbc7b932cU,
  0xbd6d9650bbeaed19U, 0xbc1b73b0bd4a7809U, 0x3c7aac6d3d8bd32bU, 0xbcc7b20cbd086e59U,
  0x3d6600dbbd4d55eeU, 0x3d0116f6bd212550U, 0xbe3b97783dab73c2U, 0x3cb076b0bdba91d7U,
  0x3b3abde6be4deacfU, 0xbc1850393dbe9599U, 0x3dc42c713cc91f87U, 0x3ca996293e03fcc7U,
  0x3cb4a4a13d190d97U, 0x3d90e397bcd6a9a7U, 0xbc22c7bb3ced9cd3U, 0x3d0bb6563e6ae3efU,
  0x3db8ff273bfedb47U, 0xbced4c543dd9a4f5U, 0xbc74d087bd95c6f3U, 0xbd0f7265bcef8567U,
  0xbb09d0783ca45fa5U, 0x3d28d19fbb716f21U, 0x3c3f8b66bc96e70bU, 0xbcbc2b053bf52281U,
  0x3ca08bc43d20aebfU, 0x3b959558bd23bf64U, 0xbe0b5489be0247d7U, 0xbcf87f5abdecd435U,
  0xbca2ec86bea4b710U, 0x3c8405893d91b8aaU, 0x3d8a317bbc0c6de6U, 0xbb5703bb3e2f4e04U,
  0xbc88522fbc73f962U, 0x3d5ee3cc3d019237U, 0x3c85f145bc7df607U, 0x3da5d4bc3e2c8d90U,
  0x3d28b6483c2e1f0bU, 0x3d25e9373da48276U, 0x3c6344d73c2a95ceU, 0xbbab54843ce253faU,
  0xbc951d5dbcfc9a81U, 0xbc48b0e9bdf6adc9U, 0xbd15a9563c97d27aU, 0x3c82e89a3d1422b1U,
  0x3d9d7d8abe2f3ac2U, 0xbd0aba93bca54b7dU, 0xbe03a44f3d0de40cU, 0xbca4a88fbd20dbd1U,
  0x3c83294dbe8946d3U, 0x3c5010e73dd7843aU, 0x3dd1c6abbc9d21bbU, 0x3c8c994d3e2f2a76U,
  0x3a8f71913d1053c1U, 0x3d92a301bcfd1713U, 0x3cc2ce7a3c1ca3b5U, 0x3b9062393e5e783aU,
  0x3daed40bbcf74d66U, 0xbc16f8623ddfaf95U, 0xbc998eafbd3a974aU, 0x3b3c66cab9797738U,
  0x3d21d562397901abU, 0xbcb910bcbd34416bU, 0xbd1d0f6d3d052b1bU, 0xbd1b64e53c9dd225U,
  0x3ca2cc193ce3173eU, 0xbcaf7a58bcfaa39bU, 0xbdccb5403e01bb70U, 0x3a0dfefabdc8b744U,
  0x3dae4071be638937U, 0x3c93e3863d37bba2U, 0x3d4dbdac3c820050U, 0x3c2269333da674fbU,
  0xbc1c5096bc10e5e8U, 0x3d508d2e3cfb847aU, 0x3cf842013bb7f330U, 0x3cf095283e545c2bU,
  0x3cc7273b3bbc02bbU, 0xbbf34a203dd8edbbU, 0x3c2a1cc93d23db51U, 0xbc7f6cad3ba7c6ceU,
  0x3d54585ebbfa80c6U, 0xbcf0380ebd1f3727U, 0x3d19cbc33d633385U, 0x397f79e83bc75a81U,
  0x3d2e7b8c3e03b83bU, 0xbcbf5175bd042059U, 0xbe54750c3c99173eU, 0xbd0427b2bdd18d4dU,
  0xbd8d15e8be26060bU, 0xbccb67013d1476ccU, 0x3deb2a9dbc7b0353U, 0x3cf3c4343e030acdU,
  0xbd3eddad3c70e0ebU, 0x3d94329a3d1333d2U, 0xbcc0727b3d01e49bU, 0x3db1f8243e727048U,
  0x3d3c6def3c9ef664U, 0xbce40efb3da23dabU, 0xbd14bec13c9d97bbU, 0xbcf6c45f3c2b9d86U,
  0x3d3b643ebca0d9a8U, 0x3c6b0a51be0b5e63U, 0xbc5ca5be3dd68380U, 0x3ca8e4d33b8c6b71U,
  0x3d9b06a6bd8eb6d9U, 0xbcc7c8453cd78efeU, 0xbda204d33ca65b00U, 0xbc7935fbbe1e5610U,
  0xbb75b3efbe90ed01U, 0xbbaa4c073d955e4dU, 0x3be29fb1bccc1602U, 0xbaef13e33d804e4eU,
  0xbc830336bc62c5f8U, 0x3c17b7763c513825U, 0x3cd885f1bce83d2fU, 0xbd3bb0cf3da1e73dU,
  0xbd2abb403c5ada4cU, 0x39afa4d13d763821U, 0xbc5d61ee3d3f40c3U, 0x3c91a255bccda067U,
  0xbdc290ccbbef5c54U, 0xbcb1a77ebdd1a124U, 0x3c141aea3ca95d54U, 0xbc393bffbc5ea8bfU,
  0x3d58c13abe114307U, 0x3d035baebcce08a8U, 0xbd922da03d6533bbU, 0xbce620e7be07dcd2U,
  0x3c83ddf7be866581U, 0xbc4d59ff3dade729U, 0xbd7861eb39b142a5U, 0x3cd939293d65a99aU,
  0xbc93a146bce9b220U, 0x3caf97233cdb33f8U, 0x3d10f825bc4a0127U, 0xbdc9385039f247a4U,
  0xbd039cfbbc258f36U, 0x3ceafb013da24617U, 0x3cd969353d1aa45dU, 0xbcb9c06b3c1ec75aU,
  0xbb7f83c93c7cdbc1U, 0xbc1a0e4abd992db2U, 0xbd1140933c809e55U, 0x3cb511183bb08dc0U,
  0x3dcf7f833c565f0cU, 0x3c5b97bc3cc66afbU, 0xbd98b3d33b9b5839U, 0xbd0ac5f6be1902a9U,
  0xbc5608bdbe1fa1b4U, 0xbc8165f43d069e73U, 0x3d8054153b0e9eb9U, 0xbd270d2b3db40b33U,
  0x3b9f9293bce1a022U, 0x3d002df6bc5b5e88U, 0xbd0eb358bb297565U, 0x3d452e213dd70da3U,
  0x3ca19a7f3c9df5bdU, 0xbcf0570f3d98f3b4U, 0x3c93ea933ce54e90U, 0xbd0d96923cf3508cU,
  0xbd844c693b933a6eU, 0xbc45d938bdcdbb09U, 0xbc6672adbd186b82U, 0x3c1f8f4cbc07ea20U,
  0x3c8986ebbd48c282U, 0x3c8d026fbd02d1a9U, 0xbda26dc5bc1ef202U, 0xbc92d350bdc1dd01U,
  0xbbbe4420bef02809U, 0xbb7353433d926bf3U, 0xbd5ad41b3cc8b2d5U, 0x3b38f29e3d5588cdU,
  0xbb90fbaf3c771c79U, 0x3c5d9525bcb16ff9U, 0x3ce1c8673c6445b6U, 0xbd217286bd5592bbU,
  0x3cc2a517bc9ff80aU, 0x3c7d7f163d8b5e8dU, 0xbcb254a33d27aae3U, 0xbc8eb0c93c48fefcU,
  0xbdb15b5bbc9acf2eU, 0xbca9e8e4be84454cU, 0xbc4586e5bd0bde5bU, 0x3c192d583c17cdbcU,
  0x3da93a8cbd7eeac5U, 0x3cb60c553c307d69U, 0xbe06c5e4bcdfaf19U, 0x3d03c7e9be8c09dbU,
  0xbdd776e5be090ea1U, 0xbc5697c43d4da27aU, 0xbbf8d5edbce3afa2U, 0xbd142a043d88d85aU,
  0xbcd94f1e3d1063baU, 0x3cc7c36b3c9509bcU, 0xbcefa2193a2f82bdU, 0xbdd0d6d73d921c7dU,
  0xbaf2091c3c252012U, 0xbbdbffac3dc63eaeU, 0x3c91361d3c42c03dU, 0x3c6c36133d2030caU,
  0xbe210ae83c27133cU, 0x3be7b0d2bdc6e9bfU, 0x3b8deeabbc5213fdU, 0xbcc79f5bbc46593aU,
  0x3c919564bd34a637U, 0x3cffa708bc34e49cU, 0xbda68ddabcef102eU, 0x3b5c2c5bbe54eb21U,
  0xbd9c2a0abe822169U, 0xbd1127713d63b592U, 0xbb93d2c4bc034b46U, 0xbc1eb6253d624636U,
  0x3abdef553d11d76fU, 0x3ce3276abc7aff34U, 0x3ca054203cc1ed91U, 0xbdb5be543db4279fU,
  0xba0c08883cfea54cU, 0xbb4b402c3d0f0bbbU, 0xbcd357293c0d1d15U, 0x3c83daf8bc2eeae0U,
  0xbdea71833c77f880U, 0x3be0b5b3bd97bf79U, 0x3cfe62babb933919U, 0x3b78f41ebc78bcf4U,
  0x3dc58fd63d0c79a3U, 0x3ab3ca6b3ba5ab84U, 0xbda69f2a3dd1f1dbU, 0xbd12caeabe814242U,
  0xbb886d16bd9fa5dbU, 0x3cd3f3d03dcd7cf4U, 0x3a58e4d7bd0b74e1U, 0xbcb6f1e73c7fa7a8U,
  0x3c7d60c53a23ce80U, 0x3c18a3863ca28f02U, 0x3cfd2111bcb28cb5U, 0xbc905ba43e13f706U,
  0x3d1639a33cbc709eU, 0xb9efe97c3d57a424U, 0xbd115ba63c768588U, 0xbb8a54883cf49121U,
  0xbe0832fdbca73804U, 0xbc752a21bc66831bU, 0x3cf3ac653cf4ec2fU, 0xbc8b5a37bc48a02aU,
  0x3dbff7233d9b7f95U, 0x3ce171e2bb5c1f1bU, 0xbdbd1198bc0bd1ddU, 0x3c459428be55828bU,
  0x3d47bb25bdf56efcU, 0xbc78f8993d22a969U, 0xbc4fb45c3cc345d1U, 0x3ac56ccb3d9b43ffU,
  0xba3b72ca3cfa4d57U, 0xbb5de1c63cb63493U, 0x3c9c1666bd0d62b5U, 0xbdbd7bba3c8e5c90U,
  0x3d4db669bc1bf936U, 0x3ce9a45c3d1db514U, 0xbd01bd523d63f5adU, 0x3c05af3cbd08e257U,
  0xbde9876dbacae20dU, 0x3d04cd91bce3aee6U, 0x3cc12dc33c27d692U, 0x3d1582873d15f62fU,
  0x3c9b25883db79dc1U, 0xbd1813473d03d070U, 0xbe0ecafd3cab3462U, 0x3c10b2d6be17d38eU,
  0x3d8ecc14bbfd23e3U, 0x3ca808f93dba05aeU, 0x3e0aa7913c5cd266U, 0xbabd97f93d924e27U,
  0xbbaa44df3d15f7aeU, 0x3cd4d88f3c9b6b6cU, 0x3d251e963ccb33f1U, 0x3d8692ea3e0d8572U,
  0xbbc46565bb828464U, 0xbcd335d43d03cd94U, 0x3ba948373d09b655U, 0x3c5e606abad9ec67U,
  0x3bb7d9743d06f0ecU, 0xbc355875bd58c430U, 0x3d0b784bbd105da3U, 0x3d2a3d07bcb23759U,
  0x3c99b2fa3e5cdf23U, 0x3d32c0093c107b4eU, 0xbde5b1cd3cc0f2b5U, 0x3cc01142beca1ad1U,
  0xbe367632bdf9ce5dU, 0x3d07d5973dcea848U, 0xbd09e8d63cb81a5fU, 0xbd0bf9603dce8dcaU,
  0xbd2b50f5bc716b5dU, 0x3d3970bf3be9e526U, 0xbd138555bc5119a9U, 0xbe32ec563c7c1a0aU,
  0x3d527bae3c0b7a96U, 0xbcdee7f83d1f3c4fU, 0x3c844e3abbb72186U, 0xbce7c8233c3d08d6U,
  0xbe6fe6cf3c25bb32U, 0xbc97b0c3bca653dbU, 0xbc5c428bbc2150b5U, 0xbc8fc387bd013f1eU,
  0x3ccf74a0bd9e6976U, 0x3d3621df3cc63b4fU, 0xbe1bf1433e1a4dd7U, 0xbc4e4bddbdac6183U,
  0x3e4c2091be14fb26U, 0xbbc5b8bd3da60b60U, 0x3d9b94e33cd21220U, 0xbb81d23f3c72d38eU,
  0xbd234a0ebc8bcb4cU, 0x3d7ef2293ceadc6aU, 0xbc4215a4bc426ab1U, 0x3d33de5e3de391c2U,
  0x3d5051d43bf21239U, 0x3cd847933c9f41aaU, 0x3ce58dda3cf30583U, 0x3c57188b3c759b3fU,
  0x3ddc9b403c28feacU, 0x3c5ecd73be0187c8U, 0x3d09aa263c1cb276U, 0xbc39d3963c455e5cU,
  0x3d6870d23e7325a8U, 0xbd7a44103cdf80d9U, 0xbe0492e03cf93d73U, 0xbc2ab05dbe84cf67U,
  0x3dd36ed3be30636bU, 0x3bc9be5d3ddce55dU, 0xbd55317c3cb74255U, 0xbc9ebafe3dab3153U,
  0x39eac87aba14bd86U, 0x3d728f87bccd62faU, 0xbc4e12363cc928cdU, 0xbe0d6f4bbb5e2195U,
  0x3d23464d3c7bfb21U, 0x3c9da4283d40932bU, 0x3c89723bbc9cf58aU, 0xbcc875453ce0c9baU,
  0xbdf438523ce64ef7U, 0x3c869bd9bd8b72d7U, 0xbd159314bdae6d4aU, 0x3ceae34fbc2cf984U,
  0x3d2ee3f83e23902fU, 0xbd17f6ab3d0122b6U, 0xbd9683103da25f1fU, 0xbbc0d87dbe613829U,
  0x3ca4410ebe1ccaebU, 0x3d1740ce3da53046U, 0x3b2741dd3c98068bU, 0xbbf15cef3de958afU,
  0x393d51533cccfd85U, 0xbb2cdd86bbfe1b32U, 0x3c82e5b5bbe45b96U, 0xbd43cb223dada679U,
  0x3c967553bd034fa4U, 0x3ba451613d53afbdU, 0xbc48386f3d618a56U, 0x3c4c40f4bcb4ded5U,
  0xbd96e705bc45a50cU, 0xbd073b0cbe2088a1U, 0x3a5d2403bce34cfcU, 0xbc934e1d3c342f87U,
  0x3d8027c13ded1b2cU, 0x3c452f143c8bd07dU, 0xbd994a833bf2fe45U, 0xbc6f3cc6be8a4734U,
  0x3dae155abde6f32cU, 0x3c877c2b3dc90f17U, 0x3dc83119bcde75dcU, 0x3ae585983db1b576U,
  0x3c62db7a3a01290bU, 0xbc0dc4fa3c137cdcU, 0xbce181793cf45c24U, 0xbd8fbe053e200913U,
  0x3d11a992bce0cd88U, 0x3c1e1a653db51fe1U, 0x3c3856153d31a779U, 0xbbfe89d1baab9151U,
  0xbd687a47bd106e66U, 0x3bf61f05bdf6fd6aU, 0x3ced0230bc8f0ae0U, 0xbcdaa2e33cc52757U,
  0x3d5a23c13e140f79U, 0x3b103b863cbe25fdU, 0xbe0885e73d80ad6fU, 0x3c5679fabe5b6a3bU,
  0x3d9d310ebe3aba2dU, 0xbd19a9ef3db9f78eU, 0xbdb4901d3cbcfe62U, 0x3cb4aed13db05fb5U,
  0xbca0244b3cf9541eU, 0xbbb3d3a0bcb1f9ddU, 0xbc4c99b9bc9e431eU, 0xbe105da03d60eba6U,
  0x3dad9dcebd04991dU, 0xbcaf56393c8f159aU, 0x3cff0412bc6237f8U, 0xba8dd591bd0c8086U,
  0xbdeb6f743a995a92U, 0xbd02d8a73d0c7129U, 0x3d15c95cbd613988U, 0x3d223697bcc26546U,
  0x3d22bc8c3e4381c2U, 0xbb48e30fbc1d4a4bU, 0xbd5efdaa3d403277U, 0x3d0fc009be304765U,
  0x3d206c1ebcbfaf74U, 0x3d0eaf483dad6673U, 0x3e0e8e573c062002U, 0x3c6e0d59bcaaf92fU,
  0xbd1961ad3cc9e098U, 0xbcace280bc982570U, 0x3b88fe1dbcd297a7U, 0xbc6da30f3e451b09U,
  0x3d36e0febd0391a2U, 0xbc6a56303d7d6693U, 0x3d0be89d3d456320U, 0x3cb543ad3cfad1d1U,
  0x3a9551ee3ce71963U, 0x3b73d0d13d7e88c0U, 0xbd0107ba3c2f475aU, 0x3d31aa8d3d0f8449U,
  0x3d718f333ddd5c77U, 0xbc45fdb0bc8d07ffU, 0xbdfa0e093da435b2U, 0xbc2266e5be41fae6U,
  0x3de6cac5bd8cb620U, 0xbceb9fbe3d15be55U, 0x3da78bd6bc409f7cU, 0xbd0a339a3d16d832U,
  0xbccfb6ecb94786a4U, 0x3cf1fcd73c19d2b0U, 0x3cd644a6bb0d2276U, 0xbc9fd2533e34a09bU,
  0x3ce59935bd00463dU, 0xbcf0cf2b3ced5d35U, 0x3d0acace3d1bd2d2U, 0xbce767c83c8a7d7bU,
  0x3c26585e3d06ab9eU, 0xbce4b1bd3e2139b7U, 0xbc9e89dc3c7ebb6cU, 0xbcc03b5e3ce11d4bU,
  0x3d2b86b43e2caf51U, 0xbbe442b4bc98460eU, 0xbe0dff24bdcb4811U, 0x39849b6ebe65645cU,
  0x3d17b0aabc0415b9U, 0xbd135ddb3dca2523U, 0x3dcb7b293bfe014eU, 0x3c87e29b3d355ae2U,
  0x3cd76add3baa46cbU, 0xbbffa1243cc91017U, 0x3b96f416bd0098deU, 0xbd336b3e3e47ace0U,
  0x3bafa1e4bcc7ca94U, 0x3d0314ce3d7bc72fU, 0xbca29ddc3c26c0a1U, 0x3d0b47923cc3b7bcU,
  0xbd814581bcb00da0U, 0xbccc2c383dc9f4b5U, 0x3cea0f0a3ac0a4f7U, 0x3cf0d8a43cc373caU,
  0x3da96d12bda16a29U, 0x3c052cc9bd041180U, 0xbdfca9ab3c3e33daU, 0x3cf2fd6dbe45f92dU,
  0x3e1bb93bbde09120U, 0x3c7aa7ec3db64ddeU, 0xbd9d78703be86688U, 0xbcd14b1dbc21283fU,
  0xbd06a76ebc6e2ce6U, 0x3ca6fb8fbcbcd75aU, 0x3cca9489bcafde18U, 0xbde263cfbc9bd677U,
  0x3d5421b53b647907U, 0x3d0990ab3db45f05U, 0xbcf591d13d583766U, 0xbc6c222a3d020d68U,
  0xbd991a25bb2b2c1dU, 0x3c44a87b3dbed666U, 0xbd0c04f83ddfc645U, 0x3cfcee5d3c302c2fU,
  0x3d00f9403e151bdaU, 0x3cd8cbb1bbcf11adU, 0xbe274513bd99672eU, 0xbaaa8d85be12e9dfU,
  0xbc82c219bce9bb37U, 0x3c526d913d5a0334U, 0xbce97d3bbcc6cccfU, 0x3b987fb53d260b8eU,
  0x3c92aa8bbc827b66U, 0x3c8f9f393cec620eU, 0x3cd02c66bd0d16b8U, 0xbd6fc2573bfc4cc6U,
  0x3d02db003cf4b908U, 0x3c19695f3d6e0061U, 0x3cf0c8a03da9341aU, 0x3c6f9c033bb199fcU,
  0xbdcf3acc3d09a6c9U, 0xbc10fad83daf5588U, 0x3cf2bf023e10aaabU, 0xbcb3f5353c85d9d9U,
  0x3e055189bd4136a2U, 0xbc40c1343befbf19U, 0xbe330bec3d98b08aU, 0x3c8c3184be2180bbU,
  0xbc8e9c093d9f1a97U, 0xbd0c1db63dacce77U, 0x3d92f40b3d3484a6U, 0x3c46da643d931e0eU,
  0xbd28a9a63cbf1011U, 0x3d1ca1903cc06602U, 0xbc45763abc82308fU, 0xbceafe5f3dbe5b45U,
  0x3c772cfdbcf54b79U, 0xbc496b8d3dad1d22U, 0xbc19cd12bc330380U, 0x3d1662643c0f3cfdU,
  0x3bc787b43b03a18dU, 0xbd07b1013e13b4d4U, 0x3cdec8703dba19c6U, 0x3c9818483ce80f89U,
  0x3d2405e33d5b6fd3U, 0x3d386c363c5961e6U, 0xbe1cbcc53c9d9c66U, 0xbc6d26f7be525552U,
  0xbe63a1dabd5ea9baU, 0x3ccd37443cf7bf05U, 0xbc0dcddebcb8fba6U, 0x3cf8da7b3d9c854aU,
  0xbb208418bcda8188U, 0xbafd9a6fbc8457cdU, 0xbd11067ebca51ae9U, 0xbda51b5a3d945b21U,
  0x3d19b035bbbe1be6U, 0x3d11139a3c4a223cU, 0xbd1a49d33d2c80a2U, 0x3c73f31ebcae4715U,
  0xbddcb7b2bc218960U, 0xbd31f7253dd29a8cU, 0xbca13c443d8e5475U, 0xbcef41a63c587fd0U,
  0x3d7d7b54bddc1784U, 0xbcd46fe63cae714dU, 0xbde6db963cce7dd4U, 0x3cc4ba43be61fd87U,
  0xbe0b9ec8bd7ad0c0U, 0x3d1225de3d2bc991U, 0xbc76e20cbcf4586cU, 0x3d0576bcbc4428b4U,
  0x3d0264c7ba1648beU, 0x3b45f6c9bc227d84U, 0xbd0eb7e6bd080f16U, 0xbdb7e0fc3d7f90fcU,
  0xbcc4c972bd06e88aU, 0xbb8b98083d8d84e8U, 0xbcc437ee3d0e1265U, 0xbc5a5587bb848983U,
  0xbdfe87023d0d9decU, 0x3ba76c363d3eacccU, 0x3bba06b83e0fd6e3U, 0xbc93def73cd52e4dU,
  0x3da44a02bd696dc7U, 0xbce8193338f5be36U, 0xbe1be943bd8f16d8U, 0xbd13b08fbe8815ecU,
  0xbec7d0ccbdbed7a5U, 0x3c7fb3b03d5a7ef1U, 0xbd08db703d1847d8U, 0xbcece96e3cd058faU,
  0xbc5283db3a54e4a2U, 0x3c55df0b3d1aee4dU, 0x3ce11bef3c13fe5cU, 0xbe0c0d7a3dac16a8U,
  0xbd075de1b9a2f60dU, 0x3cdf45763d4026b4U, 0x3c79c3c53cdc699cU, 0xbca8d117bcf607afU,
  0xbe7fd79bba231333U, 0x3ce4fbb5bd2a2641U, 0x3d092a233da88ebdU, 0x3b608cbebcdfbd3dU,
  0x3dae331bbea62bbcU, 0xbd45dccf3a568ceaU, 0xbe19d2973c141403U, 0xbc959d9dbe4c91f0U,
  0xbea067a2bc96ab9eU, 0xbcb789e73d6e7ba1U, 0x3d568e8e3cdf605aU, 0x3ca87b863ce681b9U,
  0xbc712eeeb9d191ebU, 0x3cfd3510bd1e4162U, 0x3d282609bc3b65a8U, 0xbd8789793ddbbe04U,
  0xb9f44925bc52824aU, 0x3898c7513ce058ffU, 0x3c7faadcbc8a6707U, 0x3d06276bbc227258U,
  0xbe409f6dbcce8235U, 0xbccd2e173d555586U, 0xbb8952053d7a3d9aU, 0x3d1a9eeabccf2f26U,
  0x3d28c6f4be2db004U, 0xbc26c9ebbc83100fU, 0xbe037a67bbbc9327U, 0x3cb02de9be81c24eU,
  0xbeabf899be1c037eU, 0xbc45db993d4ced60U, 0x3baf288dbadfe530U, 0xbd0c89cd3d0f1de6U,
  0xbd2ee4c2bcd95a6cU, 0x3c8972b23c939f00U, 0x3c713d1c3c033e1aU, 0xbde583833d3ac945U,
  0xbc9d22a83c86ccebU, 0x3cddf62f3d5bb917U, 0x3cd896da3bea05ccU, 0x3b7e107a3d1bbe32U,
  0xbe2e3b133cfbcc29U, 0x3afea6d13c64f79cU, 0xbd187b79bc400442U, 0x3b4f6a89bd0fcc85U,
  0x3d517e14be5de94dU, 0x3c74163cbc2372c7U, 0xbe04cc573d118c67U, 0xbbc8a0cdbea7c9ffU,
  0xbe8f1fcfbe7e5f62U, 0x3d1f2f4e3da78248U, 0xbde246773c93f638U, 0xbd03fa9b3c9e6aa9U,
  0xbccf4b723ca6e330U, 0x3b89a2c83cc4b035U, 0xbc8facb1bc8bd2c1U, 0xbe2889d13cc49c57U,
  0x3c7a5ba5bb08e724U, 0x38c0cd643d08e6cbU, 0xbd23992b3c7544b2U, 0x3bf02a103cb4587cU,
  0xbe461cf33ceaf799U, 0xbc3fe865bd5ccbffU, 0xbb35e40ebcd98104U, 0xbd14130b3ccdcf64U,
  0x3d6a7adebdd4ad33U, 0xbca0ddb13cb6e8bbU, 0xbddfe78d3cb2407dU, 0xbb43d039be20dbd2U,
  0xbddcf066be9ce894U, 0x3cf144d03d8bbd7bU, 0xbd164a14bc6263ecU, 0xbc80a90a3cbacb2bU,
  0xbcc3c6b23d02f8d3U, 0x3cd6ef483cef8b7aU, 0xbc5292a53d07a50dU, 0xbdb85888bcf93333U,
